{
  "version": "1.0",
  "truncation": null,
  "padding": null,
  "added_tokens": [
    {
      "id": 0,
      "content": "<s>",
      "single_word": false,
      "lstrip": false,
      "rstrip": false,
      "normalized": false,
      "special": true
    },
    {
      "id": 1,
      "content": "</s>",
      "single_word": false,
      "lstrip": false,
      "rstrip": false,
      "normalized": false,
      "special": true
    },
    {
      "id": 2,
      "content": "<unk>",
      "single_word": false,
      "lstrip": false,
      "rstrip": false,
      "normalized": false,
      "special": true
    },
    {
      "id": 3,
      "content": "<pad>",
      "single_word": false,
      "lstrip": false,
      "rstrip": false,
      "normalized": false,
      "special": true
    },
    {
      "id": 4,
      "content": "<mask>",
      "single_word": false,
      "lstrip": false,
      "rstrip": false,
      "normalized": false,
      "special": true
    }
  ],
  "normalizer": null,
  "pre_tokenizer": {
    "type": "ByteLevel",
    "add_prefix_space": false,
    "trim_offsets": true,
    "use_regex": true
  },
  "post_processor": {
    "type": "RobertaProcessing",
    "sep": [
      "</s>",
      1
    ],
    "cls": [
      "<s>",
      0
    ],
    "trim_offsets": true,
    "add_prefix_space": true
  },
  "decoder": {
    "type": "BPEDecoder",
    "suffix": "</w>"
  },
  "model": {
    "type": "BPE",
    "dropout": null,
    "unk_token": null,
    "continuing_subword_prefix": null,
    "end_of_word_suffix": null,
    "fuse_unk": false,
    "byte_fallback": false,
    "vocab": {
      "<s>": 0,
      "</s>": 1,
      "<unk>": 2,
      "<pad>": 3,
      "<mask>": 4,
      "!": 5,
      "\"": 6,
      "#": 7,
      "$": 8,
      "%": 9,
      "&": 10,
      "'": 11,
      "(": 12,
      ")": 13,
      "*": 14,
      "+": 15,
      ",": 16,
      "-": 17,
      ".": 18,
      "/": 19,
      "0": 20,
      "1": 21,
      "2": 22,
      "3": 23,
      "4": 24,
      "5": 25,
      "6": 26,
      "7": 27,
      "8": 28,
      "9": 29,
      ":": 30,
      ";": 31,
      "<": 32,
      "=": 33,
      ">": 34,
      "?": 35,
      "@": 36,
      "A": 37,
      "B": 38,
      "C": 39,
      "D": 40,
      "E": 41,
      "F": 42,
      "G": 43,
      "H": 44,
      "I": 45,
      "J": 46,
      "K": 47,
      "L": 48,
      "M": 49,
      "N": 50,
      "O": 51,
      "P": 52,
      "Q": 53,
      "R": 54,
      "S": 55,
      "T": 56,
      "U": 57,
      "V": 58,
      "W": 59,
      "X": 60,
      "Y": 61,
      "Z": 62,
      "[": 63,
      "\\": 64,
      "]": 65,
      "^": 66,
      "_": 67,
      "`": 68,
      "a": 69,
      "b": 70,
      "c": 71,
      "d": 72,
      "e": 73,
      "f": 74,
      "g": 75,
      "h": 76,
      "i": 77,
      "j": 78,
      "k": 79,
      "l": 80,
      "m": 81,
      "n": 82,
      "o": 83,
      "p": 84,
      "q": 85,
      "r": 86,
      "s": 87,
      "t": 88,
      "u": 89,
      "v": 90,
      "w": 91,
      "x": 92,
      "y": 93,
      "z": 94,
      "{": 95,
      "|": 96,
      "}": 97,
      "~": 98,
      "¤": 99,
      "¦": 100,
      "¨": 101,
      "«": 102,
      "®": 103,
      "°": 104,
      "±": 105,
      "²": 106,
      "³": 107,
      "´": 108,
      "µ": 109,
      "·": 110,
      "¸": 111,
      "¹": 112,
      "º": 113,
      "»": 114,
      "¼": 115,
      "½": 116,
      "¾": 117,
      "¿": 118,
      "Â": 119,
      "Ã": 120,
      "Ð": 121,
      "Ñ": 122,
      "â": 123,
      "å": 124,
      "æ": 125,
      "ç": 126,
      "ā": 127,
      "ĉ": 128,
      "Ċ": 129,
      "Ė": 130,
      "ě": 131,
      "Ġ": 132,
      "ġ": 133,
      "Ģ": 134,
      "ģ": 135,
      "Ĥ": 136,
      "ĥ": 137,
      "Ħ": 138,
      "Ĩ": 139,
      "ĩ": 140,
      "ī": 141,
      "ĭ": 142,
      "Į": 143,
      "į": 144,
      "ı": 145,
      "ĳ": 146,
      "ĵ": 147,
      "Ķ": 148,
      "ķ": 149,
      "ĺ": 150,
      "Ļ": 151,
      "Ľ": 152,
      "ľ": 153,
      "Ŀ": 154,
      "ł": 155,
      "Ń": 156,
      "Ġ;": 157,
      "sh": 158,
      "Ġ-": 159,
      "tp": 160,
      "ĠĠ": 161,
      "00": 162,
      "ftp": 163,
      "Ġc": 164,
      "Ġ/": 165,
      "Ġt": 166,
      "Ġtftp": 167,
      "in": 168,
      "77": 169,
      "er": 170,
      "Ġ|": 171,
      "mo": 172,
      "il": 173,
      "Ġcd": 174,
      "ter": 175,
      "NF": 176,
      "ĠĠĠĠ": 177,
      "VP": 178,
      "ilter": 179,
      "NFilter": 180,
      "VPNFilter": 181,
      "bin": 182,
      "et": 183,
      "ĠVPNFilter": 184,
      "xb": 185,
      "Ġsh": 186,
      "Ġ||": 187,
      "us": 188,
      "xe": 189,
      "get": 190,
      "mod": 191,
      "on": 192,
      "Ġch": 193,
      "Ġftp": 194,
      "Ġchmod": 195,
      "31": 196,
      "777": 197,
      "Ġ777": 198,
      "24": 199,
      "xf": 200,
      "18": 201,
      "61": 202,
      "13": 203,
      "Ġa": 204,
      "32": 205,
      "EA": 206,
      "Ġr": 207,
      "Ġh": 208,
      "bins": 209,
      "mp": 210,
      "Ġrm": 211,
      "02": 212,
      "rf": 213,
      "//": 214,
      "ttp": 215,
      "://": 216,
      "tmp": 217,
      "Ġhttp": 218,
      "ar": 219,
      "10": 220,
      "64": 221,
      "Ġw": 222,
      "non": 223,
      "ymo": 224,
      "nonymo": 225,
      "nonymous": 226,
      "Ġanonymous": 227,
      "ĠĠĠĠĠĠĠĠ": 228,
      "xa": 229,
      "20": 230,
      "un": 231,
      "69": 232,
      "Ġbins": 233,
      "me": 234,
      "HI": 235,
      "21": 236,
      "xc": 237,
      "62": 238,
      "LI": 239,
      "185": 240,
      "MEA": 241,
      "15": 242,
      "GHI": 243,
      "LIMEA": 244,
      "GHILIMEA": 245,
      "75": 246,
      "re": 247,
      "ro": 248,
      "246": 249,
      "at": 250,
      "Ġwget": 251,
      "usr": 252,
      "33": 253,
      "nt": 254,
      "34": 255,
      "38": 256,
      "74": 257,
      "xd": 258,
      "Ġs": 259,
      "91": 260,
      "ame": 261,
      "36": 262,
      "153": 263,
      "30": 264,
      "le": 265,
      "37": 266,
      "39": 267,
      "xff": 268,
      "var": 269,
      "22": 270,
      "fi": 271,
      "80": 272,
      "ot": 273,
      "35": 274,
      "con": 275,
      "08": 276,
      "if": 277,
      "01": 278,
      "Ġget": 279,
      "run": 280,
      "Ġ*": 281,
      "72": 282,
      "Ġ185": 283,
      "root": 284,
      "ur": 285,
      "mnt": 286,
      "Ġ21": 287,
      "03": 288,
      "Ġftpget": 289,
      "ch": 290,
      "fig": 291,
      "Ġ1": 292,
      "Ġ$": 293,
      "config": 294,
      "Ġe": 295,
      "ifconfig": 296,
      "st": 297,
      "sbin": 298,
      "04": 299,
      "Ġg": 300,
      "78": 301,
      "KC": 302,
      "rep": 303,
      "gi": 304,
      "73": 305,
      "al": 306,
      "ss": 307,
      "Ġ>": 308,
      "url": 309,
      "Ġgrep": 310,
      "82": 311,
      "/.": 312,
      "lo": 313,
      "cp": 314,
      "48": 315,
      "bo": 316,
      "206": 317,
      "Ġcat": 318,
      "QC": 319,
      "Ġ.": 320,
      "Ġcurl": 321,
      "oI": 322,
      "226": 323,
      "Jg": 324,
      "mB": 325,
      "108": 326,
      "Ġp": 327,
      "name": 328,
      "14": 329,
      "ad": 330,
      "fin": 331,
      "70": 332,
      "li": 333,
      "Ġun": 334,
      "find": 335,
      "sy": 336,
      "de": 337,
      "40": 338,
      "cho": 339,
      "rin": 340,
      "Ġb": 341,
      "rint": 342,
      "Ġ\\": 343,
      "Ġ108": 344,
      "mBA": 345,
      "xec": 346,
      "YEA": 347,
      "Ġf": 348,
      "16": 349,
      "ls": 350,
      "Ġecho": 351,
      "Ġuname": 352,
      "it": 353,
      "46": 354,
      "Do": 355,
      "etc": 356,
      ",$": 357,
      "KCJg": 358,
      "lib": 359,
      "te": 360,
      "oImBA": 361,
      "ĠGHILIMEA": 362,
      "QCgi": 363,
      "Ġ{": 364,
      "DDo": 365,
      "ll": 366,
      "DDoS": 367,
      "om": 368,
      "54": 369,
      "Us": 370,
      "83": 371,
      "ip": 372,
      "19": 373,
      "print": 374,
      "pro": 375,
      "exec": 376,
      "pe": 377,
      "or": 378,
      "wk": 379,
      "ĠĠĠĠĠĠĠĠĠĠĠĠ": 380,
      "pl": 381,
      "ma": 382,
      "si": 383,
      "88": 384,
      "UsA": 385,
      "Ġ\"": 386,
      "76": 387,
      "07": 388,
      "Ġ'": 389,
      "proc": 390,
      "di": 391,
      "xt": 392,
      "06": 393,
      "Ġ&": 394,
      "id": 395,
      "ash": 396,
      "ype": 397,
      "QCgiYEA": 398,
      "ĠC": 399,
      "05": 400,
      "dev": 401,
      "box": 402,
      "99": 403,
      "28": 404,
      "44": 405,
      "usy": 406,
      "usybox": 407,
      "27": 408,
      "op": 409,
      "68": 410,
      "nu": 411,
      "ass": 412,
      "lh": 413,
      "84": 414,
      "txt": 415,
      "user": 416,
      "Ġ./": 417,
      "cpu": 418,
      "Ġls": 419,
      "th": 420,
      "loc": 421,
      "Ġawk": 422,
      "ĠĠĠĠĠ": 423,
      "ile": 424,
      "Ġm": 425,
      "xfc": 426,
      "ce": 427,
      "50": 428,
      "com": 429,
      "net": 430,
      "xda": 431,
      "242": 432,
      "les": 433,
      "all": 434,
      "local": 435,
      "241": 436,
      "23": 437,
      "null": 438,
      "tr": 439,
      "erl": 440,
      "cat": 441,
      "202": 442,
      "ed": 443,
      "up": 444,
      "Ġ46": 445,
      "176": 446,
      "118": 447,
      "95": 448,
      "11": 449,
      "fo": 450,
      "en": 451,
      "ĠP": 452,
      "dir": 453,
      "184": 454,
      "45": 455,
      "Ġscp": 456,
      "type": 457,
      "oImBAKCJg": 458,
      "755": 459,
      "163": 460,
      "mbo": 461,
      "Ġst": 462,
      "symbo": 463,
      "ĠĠĠĠĠĠĠĠĠĠĠĠĠĠĠĠĠĠĠĠ": 464,
      "xcf": 465,
      "xbc": 466,
      "ho": 467,
      "60": 468,
      "106": 469,
      "207": 470,
      "0755": 471,
      "info": 472,
      "se": 473,
      "Ġex": 474,
      "libexec": 475,
      "inst": 476,
      "52": 477,
      "sys": 478,
      "ab": 479,
      "192": 480,
      "Ġ+": 481,
      "do": 482,
      "./": 483,
      "ST": 484,
      "tar": 485,
      "file": 486,
      "ra": 487,
      "41": 488,
      "Ġn": 489,
      "so": 490,
      "ead": 491,
      "cpuinfo": 492,
      "/..": 493,
      "lhash": 494,
      "symbolhash": 495,
      "/.../": 496,
      "Ġd": 497,
      "Ġname": 498,
      "install": 499,
      "Ġexit": 500,
      "53": 501,
      "09": 502,
      "Ġ&&": 503,
      "86": 504,
      "Ġbusybox": 505,
      "==": 506,
      "/*": 507,
      "29": 508,
      "Ġcp": 509,
      "ct": 510,
      "66": 511,
      "189": 512,
      "vi": 513,
      "63": 514,
      "Ġ82": 515,
      "nd": 516,
      "Ġhttps": 517,
      "135": 518,
      "vf": 519,
      "cl": 520,
      "xdb": 521,
      "xeb": 522,
      "ĠDDoS": 523,
      "em": 524,
      "el": 525,
      "tab": 526,
      "ress": 527,
      "YE": 528,
      "ĠĠĠĠĠĠĠĠĠĠ": 529,
      "Ġ207": 530,
      "Ġstop": 531,
      "Ġ[": 532,
      "ub": 533,
      "KS": 534,
      "log": 535,
      "xvf": 536,
      "Ġ8": 537,
      "add": 538,
      "OT": 539,
      "eet": 540,
      "KCI": 541,
      "Ġhead": 542,
      "248": 543,
      "/*/": 544,
      "class": 545,
      "address": 546,
      "ĠPxvf": 547,
      "Ġx": 548,
      "Ġ00": 549,
      "Ġsu": 550,
      ";;": 551,
      "Ġssh": 552,
      "Ġ2": 553,
      "iner": 554,
      "xaa": 555,
      "mas": 556,
      "Ġ>>": 557,
      "ssh": 558,
      "wd": 559,
      "Ġperl": 560,
      "=$": 561,
      "154": 562,
      "jV": 563,
      "149": 564,
      "Ġ]": 565,
      "tee": 566,
      "ase": 567,
      "ut": 568,
      "Ġ--": 569,
      "51": 570,
      "204": 571,
      "92": 572,
      "less": 573,
      "*.": 574,
      "UE": 575,
      "Ġwc": 576,
      "iF": 577,
      "ux": 578,
      "tent": 579,
      "ear": 580,
      "Ġ{}": 581,
      "Ġbeet": 582,
      "lB": 583,
      "AA": 584,
      "Ki": 585,
      "90": 586,
      "earless": 587,
      "lin": 588,
      "98": 589,
      "xac": 590,
      "ON": 591,
      "Ġth": 592,
      "is": 593,
      "ne": 594,
      "247": 595,
      "UU": 596,
      "ervi": 597,
      "ervice": 598,
      "Ġ}": 599,
      "ate": 600,
      "Ġ144": 601,
      "144": 602,
      "ĠĠĠ": 603,
      "ay": 604,
      "Ġ32": 605,
      "ĠM": 606,
      "Ik": 607,
      "NR": 608,
      "hi": 609,
      "gs": 610,
      "Ġthen": 611,
      "Ġprint": 612,
      "load": 613,
      "128": 614,
      "RD": 615,
      "oImBAKCJgQCgiYEA": 616,
      "jF": 617,
      "Ġ10": 618,
      "71": 619,
      "oJ": 620,
      "du": 621,
      "42": 622,
      "ti": 623,
      "ĠĠĠĠĠĠĠĠĠĠĠĠĠĠĠĠ": 624,
      "Ġif": 625,
      "ĠĠĠĠĠĠĠĠĠĠĠĠĠĠĠ": 626,
      "ck": 627,
      "thub": 628,
      "VM": 629,
      "github": 630,
      "Ġfi": 631,
      "busybox": 632,
      "SE": 633,
      "per": 634,
      "Co": 635,
      "raw": 636,
      "xcc": 637,
      "mple": 638,
      "Uk": 639,
      "content": 640,
      "iptab": 641,
      "iptables": 642,
      "ort": 643,
      "master": 644,
      "Ġ\\;": 645,
      "VQ": 646,
      "Ġ178": 647,
      "usercontent": 648,
      "githubusercontent": 649,
      "65": 650,
      "hA": 651,
      "mand": 652,
      "ge": 653,
      "Ġbeetle": 654,
      "124": 655,
      "kdir": 656,
      "12": 657,
      "Ġcpu": 658,
      "gil": 659,
      "simple": 660,
      "xaf": 661,
      "Perl": 662,
      "bois": 663,
      "lesdu": 664,
      "gillesdu": 665,
      "simplePerl": 666,
      "gillesdubois": 667,
      "simplePerlDDoS": 668,
      "pid": 669,
      "ment": 670,
      "RT": 671,
      "QD": 672,
      "RA": 673,
      "lease": 674,
      "Ġap": 675,
      "release": 676,
      "args": 677,
      "Ġinstall": 678,
      "NU": 679,
      "urce": 680,
      "212": 681,
      "Ġ192": 682,
      "moment": 683,
      "ĠHI": 684,
      "source": 685,
      "Ny": 686,
      "um": 687,
      "Ġfearless": 688,
      "KCJgQCgiYEA": 689,
      "238": 690,
      "89": 691,
      "ep": 692,
      "oh": 693,
      "KE": 694,
      "ĠL": 695,
      "Ġpid": 696,
      "PF": 697,
      "Ġ];;": 698,
      "xea": 699,
      "Ġxargs": 700,
      "xs": 701,
      "pJ": 702,
      "da": 703,
      "Ġ199": 704,
      "Ġo": 705,
      "Ġsudo": 706,
      "an": 707,
      "Ġmkdir": 708,
      "asswd": 709,
      "VI": 710,
      "hW": 711,
      "PS": 712,
      "ld": 713,
      "Ġy": 714,
      "OU": 715,
      "JC": 716,
      "zip": 717,
      "'\"": 718,
      "wn": 719,
      "94": 720,
      "ver": 721,
      "Ġsshmoment": 722,
      "VU": 723,
      "SS": 724,
      "ist": 725,
      "ve": 726,
      "LE": 727,
      "Ġup": 728,
      "time": 729,
      "ke": 730,
      "ent": 731,
      "121": 732,
      "pc": 733,
      "25": 734,
      "ayload": 735,
      "Nz": 736,
      "lz": 737,
      "QT": 738,
      "js": 739,
      "ory": 740,
      "ree": 741,
      "Hel": 742,
      "Ġ34": 743,
      "rc": 744,
      "VD": 745,
      "ron": 746,
      "58": 747,
      "Ġ~": 748,
      "ohup": 749,
      "wq": 750,
      "ww": 751,
      "43": 752,
      "md": 753,
      "giYEA": 754,
      "Ġnohup": 755,
      "PE": 756,
      "QS": 757,
      "TI": 758,
      "Tz": 759,
      "ME": 760,
      "home": 761,
      "YF": 762,
      "ĠHIST": 763,
      "ommand": 764,
      "JCYEA": 765,
      "Uz": 766,
      "100": 767,
      "hich": 768,
      "cx": 769,
      "OD": 770,
      "Ġiptables": 771,
      "Yt": 772,
      "VE": 773,
      "ff": 774,
      "Ġcommand": 775,
      "81": 776,
      "244": 777,
      "KCIh": 778,
      "TCo": 779,
      "gz": 780,
      "IC": 781,
      "Uj": 782,
      "ZF": 783,
      "Ġ45": 784,
      "Ġapt": 785,
      "lelz": 786,
      "lBI": 787,
      "lelznet": 788,
      "py": 789,
      "Ġfree": 790,
      "PU": 791,
      "AL": 792,
      "Vk": 793,
      "eed": 794,
      "QmBA": 795,
      "cd": 796,
      "OF": 797,
      "ion": 798,
      "NE": 799,
      "85": 800,
      "QCg": 801,
      "vr": 802,
      "itle": 803,
      "215": 804,
      "Xz": 805,
      "UM": 806,
      "emo": 807,
      "IkJg": 808,
      "SON": 809,
      "YEQ": 810,
      "JE": 811,
      "hd": 812,
      ";}": 813,
      "Oj": 814,
      "oIiF": 815,
      "VT": 816,
      "ĠMem": 817,
      "mi": 818,
      "xbd": 819,
      "arm": 820,
      "Ġ,$": 821,
      "ac": 822,
      "JA": 823,
      "Ġ\"*.": 824,
      "co": 825,
      "km": 826,
      "49": 827,
      "passwd": 828,
      "Ġuser": 829,
      "che": 830,
      "stem": 831,
      "ri": 832,
      "186": 833,
      "ND": 834,
      "Helper": 835,
      "vrHelper": 836,
      "Ġcut": 837,
      "awk": 838,
      "Xy": 839,
      "Ġservice": 840,
      "service": 841,
      "Ġ\"$": 842,
      "Qz": 843,
      "59": 844,
      "Ġu": 845,
      "ou": 846,
      "Ġ<": 847,
      "MKi": 848,
      "pat": 849,
      "ĠLC": 850,
      "0000": 851,
      "FI": 852,
      "211": 853,
      "XS": 854,
      "MmB": 855,
      "ng": 856,
      "Wy": 857,
      "RE": 858,
      "Qi": 859,
      "Ġ0": 860,
      "ill": 861,
      "Su": 862,
      "del": 863,
      "SuSE": 864,
      "iz": 865,
      "im": 866,
      "239": 867,
      "emon": 868,
      "daemon": 869,
      "VO": 870,
      "Zd": 871,
      "age": 872,
      "es": 873,
      "Ġsort": 874,
      "siQmBA": 875,
      "ĠĠĠĠĠĠĠĠĠĠĠĠĠĠĠĠĠĠĠĠĠĠĠĠ": 876,
      "ĠĠĠĠĠĠĠĠĠĠĠĠĠĠĠĠĠĠĠĠĠĠĠĠĠ": 877,
      "gL": 878,
      "link": 879,
      "56": 880,
      "ap": 881,
      "RF": 882,
      "read": 883,
      "kill": 884,
      "hC": 885,
      "VG": 886,
      "linux": 887,
      "path": 888,
      "Yl": 889,
      "rew": 890,
      "date": 891,
      "Pz": 892,
      "oo": 893,
      "252": 894,
      "UEhA": 895,
      "116": 896,
      "rewall": 897,
      "MU": 898,
      "Qk": 899,
      "miner": 900,
      "set": 901,
      "Ġyum": 902,
      "QE": 903,
      "47": 904,
      "bIkJg": 905,
      "Ġweed": 906,
      "qM": 907,
      "oIjF": 908,
      "yg": 909,
      "Ġlelznet": 910,
      "firewall": 911,
      "as": 912,
      "SuSEfirewall": 913,
      "ht": 914,
      "Ġbash": 915,
      "Ġ==": 916,
      "REA": 917,
      "min": 918,
      "ĠA": 919,
      "thon": 920,
      "OS": 921,
      "Tj": 922,
      "KCIx": 923,
      "QSEA": 924,
      "yI": 925,
      "pci": 926,
      "Kj": 927,
      "101": 928,
      "istory": 929,
      "ZZ": 930,
      "system": 931,
      "TF": 932,
      "wget": 933,
      "xbb": 934,
      "ive": 935,
      "PC": 936,
      "/$": 937,
      "grep": 938,
      "av": 939,
      "Ġhistory": 940,
      "png": 941,
      "Ġ80": 942,
      "tn": 943,
      "Vy": 944,
      "fs": 945,
      "Ġfile": 946,
      "Ġlspci": 947,
      "uname": 948,
      "LlBI": 949,
      "Ġof": 950,
      "Ġ3434": 951,
      "55": 952,
      "RS": 953,
      "120": 954,
      "hh": 955,
      "sion": 956,
      "ID": 957,
      "ell": 958,
      "Oz": 959,
      "Mj": 960,
      "ail": 961,
      "233": 962,
      "Ji": 963,
      "rontab": 964,
      "lC": 965,
      "rai": 966,
      "version": 967,
      "CE": 968,
      "ity": 969,
      "Ġte": 970,
      "kn": 971,
      "lF": 972,
      "RV": 973,
      "title": 974,
      "224": 975,
      "Ġlscpu": 976,
      "PT": 977,
      "Ġsed": 978,
      "Ġre": 979,
      "Ġ'*.": 980,
      "aM": 981,
      "xfe": 982,
      "img": 983,
      "JSON": 984,
      "xG": 985,
      "Ġ%": 986,
      "http": 987,
      "sc": 988,
      "SC": 989,
      "temp": 990,
      "Ġ&>": 991,
      "Ġpids": 992,
      "Ġro": 993,
      "67": 994,
      "mip": 995,
      "la": 996,
      "uid": 997,
      "Oy": 998,
      "ex": 999,
      "ĠdvrHelper": 1000,
      "eb": 1001,
      "ssage": 1002,
      "Ġminer": 1003,
      "opac": 1004,
      "opacity": 1005,
      "}'": 1006,
      "Ġcrontab": 1007,
      "syslog": 1008,
      "LO": 1009,
      "echo": 1010,
      "Ġsshmomentv": 1011,
      "roup": 1012,
      "Ġroot": 1013,
      "JQ": 1014,
      "Ġdir": 1015,
      "entaM": 1016,
      "entaMiner": 1017,
      "tX": 1018,
      "zF": 1019,
      "178": 1020,
      "Ġtop": 1021,
      "which": 1022,
      "Ġ!": 1023,
      "Ġmod": 1024,
      "message": 1025,
      "105": 1026,
      "ml": 1027,
      "Ġcpr": 1028,
      "MT": 1029,
      "SA": 1030,
      "xfb": 1031,
      "exe": 1032,
      "init": 1033,
      "wor": 1034,
      "ys": 1035,
      "Ġ230": 1036,
      "XT": 1037,
      "oi": 1038,
      "Ġ'{": 1039,
      "EAv": 1040,
      "RU": 1041,
      "keep": 1042,
      "Ġmodel": 1043,
      "TT": 1044,
      "fst": 1045,
      "group": 1046,
      "Ġuptime": 1047,
      "ALL": 1048,
      "FILE": 1049,
      "lear": 1050,
      "alive": 1051,
      "Jk": 1052,
      "fstype": 1053,
      "NMKi": 1054,
      "Vi": 1055,
      "hp": 1056,
      "104": 1057,
      "Bf": 1058,
      "uUEhA": 1059,
      "python": 1060,
      "ĠSuSEfirewall": 1061,
      ".*": 1062,
      "Ġtail": 1063,
      "WyJCYEA": 1064,
      "ĠVG": 1065,
      "xee": 1066,
      "QCgiI": 1067,
      "ĠVGA": 1068,
      "ok": 1069,
      "conf": 1070,
      "ih": 1071,
      "Ġupdate": 1072,
      "ert": 1073,
      "mN": 1074,
      "su": 1075,
      "165": 1076,
      "oImBAKCIh": 1077,
      "ĠCPU": 1078,
      "111": 1079,
      "Ri": 1080,
      "deb": 1081,
      "qI": 1082,
      "Ġ6": 1083,
      "UD": 1084,
      "odel": 1085,
      "cli": 1086,
      "Jy": 1087,
      "97": 1088,
      "146": 1089,
      "26": 1090,
      "MS": 1091,
      "ing": 1092,
      "art": 1093,
      "Ġread": 1094,
      "Ġ149": 1095,
      "Ġ3277": 1096,
      "Xx": 1097,
      "199": 1098,
      "QF": 1099,
      "VV": 1100,
      "CA": 1101,
      "pli": 1102,
      "AAA": 1103,
      "Pj": 1104,
      "xW": 1105,
      "ouch": 1106,
      "xdc": 1107,
      "json": 1108,
      "NV": 1109,
      "KCd": 1110,
      "Ġps": 1111,
      "ft": 1112,
      "Ġl": 1113,
      "Ġmi": 1114,
      "ĠW": 1115,
      "stat": 1116,
      "Ix": 1117,
      "os": 1118,
      "gh": 1119,
      "ug": 1120,
      "QmB": 1121,
      "93": 1122,
      "'\"'": 1123,
      "ami": 1124,
      "Lz": 1125,
      "ĠModel": 1126,
      "Ġtouch": 1127,
      "mtime": 1128,
      "TC": 1129,
      "Ġpayload": 1130,
      "www": 1131,
      "LU": 1132,
      "tG": 1133,
      "host": 1134,
      "Ġbeetleftp": 1135,
      "Ġkill": 1136,
      "QCgn": 1137,
      "Nll": 1138,
      "RC": 1139,
      "login": 1140,
      "ost": 1141,
      "Ġ104": 1142,
      "Yx": 1143,
      "Ġmirai": 1144,
      "zTCo": 1145,
      "down": 1146,
      "Ġv": 1147,
      "mU": 1148,
      "Ġshell": 1149,
      "soft": 1150,
      "hoami": 1151,
      "GE": 1152,
      "TION": 1153,
      "ca": 1154,
      "ĠU": 1155,
      "gt": 1156,
      "start": 1157,
      "iq": 1158,
      "ish": 1159,
      "au": 1160,
      "xbf": 1161,
      "test": 1162,
      "Nj": 1163,
      "web": 1164,
      "Ġclear": 1165,
      "Ġ60000": 1166,
      "87": 1167,
      "gr": 1168,
      "lf": 1169,
      "check": 1170,
      "BI": 1171,
      "mask": 1172,
      "biz": 1173,
      "tw": 1174,
      "ue": 1175,
      "Ġumask": 1176,
      "RAKS": 1177,
      "PK": 1178,
      "qsoft": 1179,
      "ze": 1180,
      "JgRD": 1181,
      "bizqsoft": 1182,
      "fearless": 1183,
      "ĠHISTFILE": 1184,
      "sn": 1185,
      "iname": 1186,
      "vc": 1187,
      "ard": 1188,
      "Ġ</": 1189,
      "79": 1190,
      "VS": 1191,
      "214": 1192,
      "Ġ\"'\"": 1193,
      "to": 1194,
      "181": 1195,
      "KU": 1196,
      "QCgm": 1197,
      "AS": 1198,
      "cs": 1199,
      "Ġtff": 1200,
      "Ġtfft": 1201,
      "Vd": 1202,
      "Jl": 1203,
      "TO": 1204,
      "ws": 1205,
      "war": 1206,
      "able": 1207,
      "VA": 1208,
      "gn": 1209,
      "oQ": 1210,
      "ĠI": 1211,
      "Ġ3435": 1212,
      "nv": 1213,
      "Ni": 1214,
      "lu": 1215,
      "Ġwhich": 1216,
      "download": 1217,
      "ki": 1218,
      "gb": 1219,
      "yS": 1220,
      "hook": 1221,
      "NT": 1222,
      "gate": 1223,
      "port": 1224,
      "Ġdi": 1225,
      "Vl": 1226,
      "chard": 1227,
      "JjV": 1228,
      "mips": 1229,
      "exist": 1230,
      "JO": 1231,
      "WU": 1232,
      "Ġhash": 1233,
      "Ġstat": 1234,
      "RO": 1235,
      "xfa": 1236,
      "MO": 1237,
      "giM": 1238,
      "cpr": 1239,
      "/.../;": 1240,
      "XV": 1241,
      "BO": 1242,
      "bU": 1243,
      "Ġuniq": 1244,
      "WE": 1245,
      "iU": 1246,
      "pJy": 1247,
      "sl": 1248,
      "work": 1249,
      "172": 1250,
      "readlink": 1251,
      "perm": 1252,
      "mJ": 1253,
      "yo": 1254,
      "8080": 1255,
      "VjV": 1256,
      "BP": 1257,
      "127": 1258,
      "wqKCJgQCgiYEA": 1259,
      "hb": 1260,
      "alle": 1261,
      "107": 1262,
      "VC": 1263,
      "Ġ~/.": 1264,
      "ua": 1265,
      "Ih": 1266,
      "wi": 1267,
      "Ġid": 1268,
      "ImB": 1269,
      "netstat": 1270,
      "Ġtest": 1271,
      "Ġpro": 1272,
      "Ġstatus": 1273,
      "hX": 1274,
      "DI": 1275,
      "uff": 1276,
      "ĠN": 1277,
      "VF": 1278,
      "KCNU": 1279,
      "unt": 1280,
      "richard": 1281,
      "cron": 1282,
      "Payload": 1283,
      "QCkm": 1284,
      "lse": 1285,
      "ware": 1286,
      "dGHILIMEA": 1287,
      "cation": 1288,
      "Vj": 1289,
      "iv": 1290,
      "209": 1291,
      "ty": 1292,
      "xdep": 1293,
      "maxdep": 1294,
      "OUT": 1295,
      "maxdepth": 1296,
      "Uy": 1297,
      "bIkJgQCgiYEA": 1298,
      "Mz": 1299,
      "US": 1300,
      "ith": 1301,
      "PFY": 1302,
      "webhook": 1303,
      "dh": 1304,
      "OFZ": 1305,
      "existent": 1306,
      "nonexistent": 1307,
      "NzF": 1308,
      "https": 1309,
      "out": 1310,
      "Ġwhoami": 1311,
      "352": 1312,
      "XygiYEA": 1313,
      "xx": 1314,
      "Ġ327": 1315,
      "plication": 1316,
      "RTx": 1317,
      "Rl": 1318,
      "rs": 1319,
      "Ġbeetles": 1320,
      "Ġelse": 1321,
      "NMKigiYEA": 1322,
      "AN": 1323,
      "bn": 1324,
      "rK": 1325,
      "Ġen": 1326,
      "gjV": 1327,
      "ny": 1328,
      "IKS": 1329,
      "VVk": 1330,
      "/\\": 1331,
      "io": 1332,
      "ĠRE": 1333,
      "vd": 1334,
      "inux": 1335,
      "command": 1336,
      "WD": 1337,
      "username": 1338,
      "yYF": 1339,
      "wj": 1340,
      "dW": 1341,
      "Ġmv": 1342,
      "LlBIQCgiYEA": 1343,
      "Ġunset": 1344,
      "96": 1345,
      "yc": 1346,
      "ĠE": 1347,
      "UC": 1348,
      "Rz": 1349,
      "ĠF": 1350,
      "lor": 1351,
      "ROCE": 1352,
      "Ġenable": 1353,
      "Qq": 1354,
      "yYEQ": 1355,
      "Ġz": 1356,
      "MOVE": 1357,
      "uffer": 1358,
      "Mk": 1359,
      "size": 1360,
      "Ġdf": 1361,
      "color": 1362,
      "Ġfin": 1363,
      "Ġpasswd": 1364,
      "ĠPentaMiner": 1365,
      "ĠPROCE": 1366,
      "ĠREMOVE": 1367,
      "ĠREMOVED": 1368,
      "sudo": 1369,
      "Ġunzip": 1370,
      "Ġstd": 1371,
      "LA": 1372,
      "Yp": 1373,
      "Ġwith": 1374,
      "GH": 1375,
      "xA": 1376,
      "Ġnetstat": 1377,
      "Ġ$?": 1378,
      "Ġend": 1379,
      "cache": 1380,
      "Ġegrep": 1381,
      "symbol": 1382,
      "curl": 1383,
      "{\\": 1384,
      "Ġ23073": 1385,
      "SI": 1386,
      "hk": 1387,
      "Ġbuffer": 1388,
      "ished": 1389,
      "Ġfinished": 1390,
      "ĠstdOUT": 1391,
      "prun": 1392,
      "sen": 1393,
      "Ġ$(": 1394,
      "installe": 1395,
      "ĠWAS": 1396,
      "prune": 1397,
      "Ep": 1398,
      "000": 1399,
      "no": 1400,
      "Con": 1401,
      "Nl": 1402,
      "ba": 1403,
      "sown": 1404,
      "ĠAND": 1405,
      "Ġdisown": 1406,
      "TU": 1407,
      "@$": 1408,
      "Yk": 1409,
      "BE": 1410,
      "Qj": 1411,
      "gv": 1412,
      "hc": 1413,
      "Ġexport": 1414,
      "emb": 1415,
      "auth": 1416,
      "Dk": 1417,
      "VZ": 1418,
      "hq": 1419,
      "php": 1420,
      "126": 1421,
      "Ġapplication": 1422,
      "VW": 1423,
      "Rj": 1424,
      "bs": 1425,
      "gj": 1426,
      "ĠREA": 1427,
      "Ġtitle": 1428,
      "xcd": 1429,
      "Ġ75": 1430,
      "Linux": 1431,
      "Ġusers": 1432,
      "Content": 1433,
      "MF": 1434,
      "MUU": 1435,
      "tW": 1436,
      "Ġ3270": 1437,
      "EAr": 1438,
      "Ġ&>/": 1439,
      "KT": 1440,
      "Ġ0777": 1441,
      "ew": 1442,
      "pf": 1443,
      "222": 1444,
      "JgXS": 1445,
      "SED": 1446,
      "ĠJSON": 1447,
      "188": 1448,
      "ĠCLO": 1449,
      "eds": 1450,
      "ĠCLOSED": 1451,
      "Type": 1452,
      "gq": 1453,
      "oBP": 1454,
      "LISA": 1455,
      "atar": 1456,
      "YEBf": 1457,
      "ĠHIGH": 1458,
      "TILISA": 1459,
      "avatar": 1460,
      "imgur": 1461,
      "JSONGHILIMEA": 1462,
      "jsonGHILIMEA": 1463,
      "TIONGHILIMEA": 1464,
      "ĠUTILISA": 1465,
      "ĠPROCESS": 1466,
      "embeds": 1467,
      "ĠREASON": 1468,
      "oBPXx": 1469,
      "ĠUTILISATIONGHILIMEA": 1470,
      "jd": 1471,
      "ts": 1472,
      "xJ": 1473,
      "Iu": 1474,
      "403": 1475,
      "Em": 1476,
      "HO": 1477,
      "kj": 1478,
      "Ġtar": 1479,
      "linuxservice": 1480,
      "xca": 1481,
      "cw": 1482,
      "Ġ`": 1483,
      "MmBE": 1484,
      "IhW": 1485,
      "bt": 1486,
      "gp": 1487,
      "LS": 1488,
      "Ġreadlink": 1489,
      "PlBI": 1490,
      "keys": 1491,
      "printf": 1492,
      "Ġ3271": 1493,
      "oImBAKCJgQCgiYEAoImBA": 1494,
      "0352": 1495,
      "LD": 1496,
      "kg": 1497,
      "erver": 1498,
      "2123": 1499,
      "03522123": 1500,
      "mX": 1501,
      "LUU": 1502,
      "fg": 1503,
      "QEQ": 1504,
      "Rf": 1505,
      "ized": 1506,
      "Iy": 1507,
      "tc": 1508,
      "Ġminergate": 1509,
      "UmB": 1510,
      "ib": 1511,
      "orized": 1512,
      "Ġ103": 1513,
      "17": 1514,
      "JV": 1515,
      "NS": 1516,
      "Rk": 1517,
      "rb": 1518,
      "Ġ78": 1519,
      "authorized": 1520,
      "LC": 1521,
      "WF": 1522,
      "kb": 1523,
      "ud": 1524,
      "YtS": 1525,
      "Rw": 1526,
      "WO": 1527,
      "wh": 1528,
      "TE": 1529,
      "leep": 1530,
      "ctiv": 1531,
      "ALz": 1532,
      "ctivate": 1533,
      "TOT": 1534,
      "ah": 1535,
      "103": 1536,
      "Ġ\\(": 1537,
      "Pl": 1538,
      "KiIx": 1539,
      "bash": 1540,
      "alvi": 1541,
      "Io": 1542,
      "my": 1543,
      "Uzk": 1544,
      "RFsiQmBA": 1545,
      "Kl": 1546,
      "df": 1547,
      "Nyl": 1548,
      "cmd": 1549,
      "oIj": 1550,
      "pth": 1551,
      "Ġand": 1552,
      "KCJgQCgiYEAoImBAKCJg": 1553,
      "aC": 1554,
      "ag": 1555,
      "Ġmd": 1556,
      "VCo": 1557,
      "payload": 1558,
      "rm": 1559,
      "Ġ\\)": 1560,
      "RY": 1561,
      "VX": 1562,
      "hG": 1563,
      "uu": 1564,
      "ik": 1565,
      "oImBAKCJgQCgiYEAoIiF": 1566,
      "Gw": 1567,
      "ain": 1568,
      "Ġifconfig": 1569,
      "Ġfind": 1570,
      "Ġsleep": 1571,
      "pi": 1572,
      "NVI": 1573,
      "fc": 1574,
      "alert": 1575,
      "ipGHILIMEA": 1576,
      "119": 1577,
      "ec": 1578,
      "wqKCJg": 1579,
      "cm": 1580,
      "KCdMKi": 1581,
      "CK": 1582,
      "JS": 1583,
      "Ġk": 1584,
      "snmp": 1585,
      "dvrHelper": 1586,
      "pg": 1587,
      "tftp": 1588,
      "ation": 1589,
      "YEg": 1590,
      "LUs": 1591,
      "Ax": 1592,
      "Ġ'\"": 1593,
      "knI": 1594,
      "250": 1595,
      "rsa": 1596,
      "VVkoIjF": 1597,
      "*'": 1598,
      "Ry": 1599,
      "Ng": 1600,
      "RjV": 1601,
      "base": 1602,
      "Ġmessage": 1603,
      "FP": 1604,
      "Ġ:": 1605,
      "QkR": 1606,
      "Ozd": 1607,
      "Ol": 1608,
      "âĢ": 1609,
      "delet": 1610,
      "Host": 1611,
      "ĠAA": 1612,
      "249": 1613,
      "EAAAA": 1614,
      "AAB": 1615,
      "oJy": 1616,
      "NzaC": 1617,
      "ĠAAAAB": 1618,
      "uguu": 1619,
      "rn": 1620,
      "686": 1621,
      "Ġ*.": 1622,
      "MiF": 1623,
      "UV": 1624,
      "cn": 1625,
      "Ġ<(": 1626,
      "ĠAl": 1627,
      "qIjF": 1628,
      "ZY": 1629,
      "ozTCo": 1630,
      "Ġtssh": 1631,
      "Ġ],": 1632,
      "ANG": 1633,
      "PentaMiner": 1634,
      "gm": 1635,
      "Ġ1127": 1636,
      "OjY": 1637,
      "scn": 1638,
      "ertGHILIMEA": 1639,
      "ĠAlertGHILIMEA": 1640,
      "Ġ1127128": 1641,
      "kl": 1642,
      "Ġnproc": 1643,
      "ĠLANG": 1644,
      "'\"'\"'": 1645,
      "WY": 1646,
      "Ġco": 1647,
      "Ġ\"*": 1648,
      "RK": 1649,
      "117": 1650,
      "PEY": 1651,
      "cc": 1652,
      "top": 1653,
      "XU": 1654,
      "Ġnjs": 1655,
      "GQ": 1656,
      "ZR": 1657,
      "kuUEhA": 1658,
      "sd": 1659,
      "weed": 1660,
      "QmBIKS": 1661,
      "pon": 1662,
      "sq": 1663,
      "Ġsalvi": 1664,
      "oIk": 1665,
      "apt": 1666,
      "Ġ'\"'\"'": 1667,
      "CKS": 1668,
      "VzF": 1669,
      "ZFTj": 1670,
      "html": 1671,
      "'\"'\"';": 1672,
      "beet": 1673,
      "Ġbase": 1674,
      "beetles": 1675,
      "NlF": 1676,
      "Ġtr": 1677,
      "Ġsy": 1678,
      "new": 1679,
      "LT": 1680,
      "Iw": 1681,
      "Vz": 1682,
      "remo": 1683,
      "Ġgo": 1684,
      "gjVEA": 1685,
      "iI": 1686,
      "Ġj": 1687,
      "ps": 1688,
      "\\.": 1689,
      "etcservice": 1690,
      "Ti": 1691,
      "Ġpkill": 1692,
      "nip": 1693,
      "194": 1694,
      "IhWy": 1695,
      "nippon": 1696,
      "mpsl": 1697,
      "Ġ4": 1698,
      "Hello": 1699,
      "Ġ'{}'": 1700,
      "NllE": 1701,
      "NET": 1702,
      "Qzp": 1703,
      "Ek": 1704,
      "Ġi": 1705,
      "Ġ102": 1706,
      "goo": 1707,
      "mail": 1708,
      "tf": 1709,
      "hist": 1710,
      "armv": 1711,
      "yggb": 1712,
      "Eu": 1713,
      "ĠG": 1714,
      "BJ": 1715,
      "Iz": 1716,
      "QiF": 1717,
      "dos": 1718,
      "pJi": 1719,
      "JU": 1720,
      "Qt": 1721,
      "SD": 1722,
      "nc": 1723,
      "ĠHello": 1724,
      "ata": 1725,
      "Ġsus": 1726,
      "LzJg": 1727,
      "history": 1728,
      "}\"": 1729,
      "/;": 1730,
      "JEQD": 1731,
      "158": 1732,
      "OzdE": 1733,
      "Ġwas": 1734,
      "boot": 1735,
      "OzY": 1736,
      "val": 1737,
      "ĠPID": 1738,
      "KCNUQC": 1739,
      "TG": 1740,
      "xm": 1741,
      "Ag": 1742,
      "rip": 1743,
      "yC": 1744,
      "Mb": 1745,
      "vA": 1746,
      "Ġchpasswd": 1747,
      "Ġnew": 1748,
      "VDk": 1749,
      "AK": 1750,
      "Hp": 1751,
      "JH": 1752,
      "NI": 1753,
      "VK": 1754,
      "uj": 1755,
      "rect": 1756,
      "lBA": 1757,
      "OUND": 1758,
      "BJQ": 1759,
      "NPj": 1760,
      "sed": 1761,
      "JEWyJCYEA": 1762,
      "EAAAABJQ": 1763,
      "EAAAABJQAAA": 1764,
      "he": 1765,
      "attr": 1766,
      "ZE": 1767,
      "jI": 1768,
      "OE": 1769,
      "gle": 1770,
      "hB": 1771,
      "oa": 1772,
      "Ġ755": 1773,
      "oImBAKCJgQD": 1774,
      "gH": 1775,
      "tJ": 1776,
      "rig": 1777,
      "ju": 1778,
      "oImBAKCJgQCgi": 1779,
      "Ġlo": 1780,
      "tXK": 1781,
      "Ġproc": 1782,
      "Ġin": 1783,
      "Ġ'/": 1784,
      "EAAAABJQAAAQ": 1785,
      "tS": 1786,
      "Ġ34355": 1787,
      "LB": 1788,
      "QH": 1789,
      "Ġinstalle": 1790,
      "Ġchattr": 1791,
      "LVU": 1792,
      "152": 1793,
      "Bg": 1794,
      "Dp": 1795,
      "DOD": 1796,
      "Je": 1797,
      "ow": 1798,
      "xH": 1799,
      "Ġus": 1800,
      "*\"": 1801,
      "jpg": 1802,
      "kk": 1803,
      "SIZE": 1804,
      "FS": 1805,
      "Ww": 1806,
      "CEE": 1807,
      "MUE": 1808,
      "Ġ3": 1809,
      "depth": 1810,
      "JQQC": 1811,
      "NVQ": 1812,
      "QCoi": 1813,
      "1234": 1814,
      "218": 1815,
      "ky": 1816,
      "mkdir": 1817,
      "STD": 1818,
      "/+": 1819,
      "Fnv": 1820,
      "Ie": 1821,
      "VsiQmBA": 1822,
      "cwd": 1823,
      "gA": 1824,
      "server": 1825,
      "oImBAKC": 1826,
      "oImBAXygiYEA": 1827,
      "=$(": 1828,
      "hWC": 1829,
      "Jz": 1830,
      "TD": 1831,
      "cfg": 1832,
      "gx": 1833,
      "rB": 1834,
      "rvc": 1835,
      "vD": 1836,
      "lhr": 1837,
      "iIg": 1838,
      "--": 1839,
      "FSTD": 1840,
      "GVO": 1841,
      "GPK": 1842,
      "KQT": 1843,
      "Mua": 1844,
      "Noa": 1845,
      "PmU": 1846,
      "Pec": 1847,
      "PRK": 1848,
      "PgH": 1849,
      "QXx": 1850,
      "RM": 1851,
      "TWY": 1852,
      "VvA": 1853,
      "YMb": 1854,
      "YjI": 1855,
      "bJk": 1856,
      "cun": 1857,
      "dF": 1858,
      "dbn": 1859,
      "eLB": 1860,
      "hJO": 1861,
      "hYp": 1862,
      "kX": 1863,
      "kNF": 1864,
      "lAK": 1865,
      "mware": 1866,
      "oRw": 1867,
      "rTO": 1868,
      "spc": 1869,
      "sPK": 1870,
      "uAx": 1871,
      "wGQ": 1872,
      "zYk": 1873,
      "ziIg": 1874,
      "rfck": 1875,
      "engv": 1876,
      "wdIe": 1877,
      "anUV": 1878,
      "JAw": 1879,
      "gLMua": 1880,
      "TFB": 1881,
      "Mjux": 1882,
      "mNx": 1883,
      "NVbU": 1884,
      "mUPgH": 1885,
      "vcD": 1886,
      "KUhB": 1887,
      "wsQk": 1888,
      "nvNoa": 1889,
      "ySVK": 1890,
      "ySYMb": 1891,
      "BOx": 1892,
      "bUanUV": 1893,
      "WEQH": 1894,
      "iUKQT": 1895,
      "rKJAw": 1896,
      "nylAK": 1897,
      "LAsPK": 1898,
      "EpZ": 1899,
      "TUbJk": 1900,
      "bsZ": 1901,
      "EArDp": 1902,
      "pfTG": 1903,
      "jdySYMb": 1904,
      "EmPec": 1905,
      "rbMz": 1906,
      "WFwdIe": 1907,
      "WOnvNoa": 1908,
      "Ġmdrfck": 1909,
      "hGmd": 1910,
      "GwCEE": 1911,
      "fcBOx": 1912,
      "IhWyJCYEA": 1913,
      "EuWOnvNoa": 1914,
      "yCGPK": 1915,
      "HpgLMua": 1916,
      "ujvcD": 1917,
      "EAAAABJQAAAQEArDp": 1918,
      "BgTFB": 1919,
      "FnvlC": 1920,
      "cwdli": 1921,
      "gAySVK": 1922,
      "hWCwsQk": 1923,
      "rBLAsPK": 1924,
      "rvcEmPec": 1925,
      "FSTDengv": 1926,
      "GVOmNx": 1927,
      "PmUux": 1928,
      "QXxziIg": 1929,
      "TWYYjI": 1930,
      "VvAcwdli": 1931,
      "dbnrTO": 1932,
      "eLBHpgLMua": 1933,
      "hJOK": 1934,
      "kNFS": 1935,
      "zYkFnvlC": 1936,
      "NVbUT": 1937,
      "mUPgHwGQ": 1938,
      "KUhBGE": 1939,
      "WEQHmd": 1940,
      "iUKQTTWYYjI": 1941,
      "nylAKGwCEE": 1942,
      "pfTGTUbJk": 1943,
      "Ġmdrfckr": 1944,
      "EuWOnvNoaJe": 1945,
      "gAySVKPRK": 1946,
      "rBLAsPKgAySVKPRK": 1947,
      "rvcEmPecjdySYMb": 1948,
      "FSTDengvS": 1949,
      "dbnrTOrbMz": 1950,
      "eLBHpgLMuakb": 1951,
      "iUKQTTWYYjIIu": 1952,
      "CO": 1953,
      "OEA": 1954,
      "138": 1955,
      "KCdMKigiYEA": 1956,
      "Ġ~/": 1957,
      "Ui": 1958,
      "UKi": 1959,
      "OTct": 1960,
      "QiozTCo": 1961,
      "Ġ30": 1962,
      "ZFRi": 1963,
      "value": 1964,
      ":/": 1965,
      "=/": 1966,
      "SEA": 1967,
      "SSH": 1968,
      "QCgmVVkoIjF": 1969,
      "JOU": 1970,
      "xX": 1971,
      "POFZ": 1972,
      "ime": 1973,
      "STlC": 1974,
      "gLX": 1975,
      "Ġ32774": 1976,
      "ian": 1977,
      "yum": 1978,
      "VDg": 1979,
      "mNVM": 1980,
      "PlBIQCgiYEA": 1981,
      "Ġcan": 1982,
      "/'": 1983,
      "Ql": 1984,
      "Yw": 1985,
      "sort": 1986,
      "Ġpy": 1987,
      "OTcx": 1988,
      "BA": 1989,
      "Vs": 1990,
      "eck": 1991,
      "gK": 1992,
      "227": 1993,
      "oImBAKCJgQCgiI": 1994,
      "oJl": 1995,
      "JARD": 1996,
      "BU": 1997,
      "FO": 1998,
      "Ġ5": 1999,
      "Ġlinuxservice": 2000,
      "VPE": 2001,
      "191": 2002,
      "xALz": 2003,
      "IqM": 2004,
      "ZVW": 2005,
      "activate": 2006,
      "lU": 2007,
      "Ġobt": 2008,
      "sendGHILIMEA": 2009,
      "ĠcanGHILIMEA": 2010,
      "Ġobtain": 2011,
      "=\"": 2012,
      "tgz": 2013,
      "JgSC": 2014,
      "xF": 2015,
      "JjVT": 2016,
      "Ġsystem": 2017,
      "xfd": 2018,
      "sel": 2019,
      "last": 2020,
      "hWT": 2021,
      "mh": 2022,
      "tput": 2023,
      "Ġad": 2024,
      "Ġhost": 2025,
      "redh": 2026,
      "Ġ167": 2027,
      "direct": 2028,
      "redhat": 2029,
      "VZKCIx": 2030,
      "YtSz": 2031,
      "MUk": 2032,
      "mw": 2033,
      "ZZRD": 2034,
      "Ġ3434152": 2035,
      "debian": 2036,
      "KUU": 2037,
      "ef": 2038,
      "RzF": 2039,
      "kyggb": 2040,
      "pa": 2041,
      "foo": 2042,
      "SYF": 2043,
      "VEA": 2044,
      "one": 2045,
      "Ġho": 2046,
      "reen": 2047,
      "Ġ'*": 2048,
      "word": 2049,
      "xef": 2050,
      "mipsel": 2051,
      "WDA": 2052,
      "shell": 2053,
      "195": 2054,
      "JM": 2055,
      "My": 2056,
      "not": 2057,
      "mirai": 2058,
      "FsiQmBA": 2059,
      "og": 2060,
      "216": 2061,
      "rege": 2062,
      "ello": 2063,
      "scrip": 2064,
      "libst": 2065,
      "PFZd": 2066,
      "NjhA": 2067,
      ")\"": 2068,
      "/`": 2069,
      "280": 2070,
      "iQmBA": 2071,
      "lv": 2072,
      "wL": 2073,
      "wy": 2074,
      "gnTCo": 2075,
      "NC": 2076,
      "SL": 2077,
      "kt": 2078,
      "oQkR": 2079,
      "180": 2080,
      "cxRTx": 2081,
      "lack": 2082,
      "jf": 2083,
      "sass": 2084,
      "Ġmy": 2085,
      "Ġ3434280": 2086,
      "UmBd": 2087,
      "ZFRigi": 2088,
      "Mw": 2089,
      "lp": 2090,
      "Ġ100": 2091,
      "ihJ": 2092,
      "WUQ": 2093,
      "FPF": 2094,
      "RjF": 2095,
      "SPS": 2096,
      "mount": 2097,
      "Ġ123": 2098,
      "IU": 2099,
      "tC": 2100,
      "VTxG": 2101,
      "libstde": 2102,
      "FB": 2103,
      "FOy": 2104,
      "KV": 2105,
      "ber": 2106,
      "PSY": 2107,
      "lder": 2108,
      "OjZZ": 2109,
      "MVA": 2110,
      "ix": 2111,
      "Ġor": 2112,
      "ppc": 2113,
      "slack": 2114,
      "xde": 2115,
      "QCgiYEBf": 2116,
      "UDg": 2117,
      "worker": 2118,
      "slackware": 2119,
      "Ky": 2120,
      "Ġ^": 2121,
      "Ġversion": 2122,
      "168": 2123,
      "oImBAKCJgQF": 2124,
      "Ujk": 2125,
      "BR": 2126,
      "FA": 2127,
      "[^": 2128,
      "pkg": 2129,
      "243": 2130,
      "PzBI": 2131,
      "ĠreSuSEfirewall": 2132,
      "ĠFOUND": 2133,
      "NPjJgRD": 2134,
      "lG": 2135,
      "IkBI": 2136,
      "xAKS": 2137,
      "LUE": 2138,
      "Yy": 2139,
      "ZVWS": 2140,
      "BQ": 2141,
      "JOzY": 2142,
      "hM": 2143,
      "scp": 2144,
      "Ġ*;": 2145,
      "hCRFsiQmBA": 2146,
      "aw": 2147,
      "bot": 2148,
      "iw": 2149,
      "sm": 2150,
      "VGKC": 2151,
      "TM": 2152,
      "VN": 2153,
      "XX": 2154,
      "XUM": 2155,
      "Ġis": 2156,
      "ĠSSH": 2157,
      "xae": 2158,
      "xcb": 2159,
      "Ġsc": 2160,
      "list": 2161,
      "asda": 2162,
      "ul": 2163,
      "xC": 2164,
      "Ġopacity": 2165,
      "oImBAKCJgQCgiYEAoImBAKCIh": 2166,
      "qMiF": 2167,
      "Ġ3434216": 2168,
      "Rd": 2169,
      "Ut": 2170,
      "osh": 2171,
      "088": 2172,
      "Ġgzip": 2173,
      "Ġ3434088": 2174,
      "OEAqIjF": 2175,
      "114": 2176,
      "ĠaWDA": 2177,
      "userGHILIMEA": 2178,
      "ygjV": 2179,
      "ER": 2180,
      "Sy": 2181,
      "xI": 2182,
      "Ġsen": 2183,
      "366": 2184,
      "google": 2185,
      "Oi": 2186,
      "data": 2187,
      "oImB": 2188,
      "KCJgQD": 2189,
      "newer": 2190,
      "4366": 2191,
      "eq": 2192,
      "qUk": 2193,
      "cess": 2194,
      "NRT": 2195,
      "systemcache": 2196,
      "TCgi": 2197,
      "436621": 2198,
      "QO": 2199,
      "QOD": 2200,
      "oy": 2201,
      "zh": 2202,
      "ĠH": 2203,
      "Ġnu": 2204,
      "QCgnVCo": 2205,
      "177": 2206,
      "110": 2207,
      "]*": 2208,
      "for": 2209,
      "ie": 2210,
      "zu": 2211,
      "ĠY": 2212,
      "files": 2213,
      "wz": 2214,
      "xba": 2215,
      "code": 2216,
      "APT": 2217,
      "hr": 2218,
      "KEQ": 2219,
      "KjNMKigiYEA": 2220,
      "regex": 2221,
      "od": 2222,
      "assword": 2223,
      "STE": 2224,
      "yIVsiQmBA": 2225,
      "AgIC": 2226,
      "IG": 2227,
      "Ip": 2228,
      "JD": 2229,
      "ORY": 2230,
      "pwd": 2231,
      "woI": 2232,
      "Ġass": 2233,
      "arch": 2234,
      "ĠHISTORY": 2235,
      "ihE": 2236,
      "own": 2237,
      "mpty": 2238,
      "KCY": 2239,
      "Ġ\"%": 2240,
      "ctTz": 2241,
      "CHO": 2242,
      "ECHO": 2243,
      "UEA": 2244,
      "VDo": 2245,
      "ry": 2246,
      "xml": 2247,
      "Ġcon": 2248,
      "ubnt": 2249,
      "sshmoment": 2250,
      "ĠIN": 2251,
      "Ġinstalled": 2252,
      "Xi": 2253,
      "dn": 2254,
      "ĠS": 2255,
      "Ġdo": 2256,
      "Ġremo": 2257,
      "Ġsass": 2258,
      "Ġel": 2259,
      "167": 2260,
      "RAPlBIQCgiYEA": 2261,
      "10086": 2262,
      "AiU": 2263,
      "WlB": 2264,
      "xE": 2265,
      "Ġfoo": 2266,
      "VUAiU": 2267,
      "VjVO": 2268,
      "Ġpython": 2269,
      "WlBT": 2270,
      "VUAiUWlBT": 2271,
      "cy": 2272,
      "rst": 2273,
      "ure": 2274,
      "Ġclo": 2275,
      "sync": 2276,
      "Ġ'\\": 2277,
      "MEhA": 2278,
      "output": 2279,
      "EAvN": 2280,
      "Ir": 2281,
      "`.": 2282,
      "nr": 2283,
      "Ġcheck": 2284,
      "Ġcpshell": 2285,
      "xWNU": 2286,
      "directory": 2287,
      "102": 2288,
      "JOUJgSC": 2289,
      "Ġhoe": 2290,
      "AgL": 2291,
      "Ġq": 2292,
      "166": 2293,
      "symbolC": 2294,
      "some": 2295,
      "ONE": 2296,
      "xmrig": 2297,
      "Ġelif": 2298,
      "FPS": 2299,
      "pS": 2300,
      "unzip": 2301,
      "pect": 2302,
      "MVU": 2303,
      "UVM": 2304,
      "ds": 2305,
      "hy": 2306,
      "chQT": 2307,
      "cpVDg": 2308,
      "UztW": 2309,
      "Ġsalviat": 2310,
      "oIkBE": 2311,
      "POFZNRT": 2312,
      "NVM": 2313,
      "VUU": 2314,
      "nx": 2315,
      "xS": 2316,
      "git": 2317,
      "PFZdQzp": 2318,
      "oImBE": 2319,
      "`.`": 2320,
      "Jm": 2321,
      "ĠâĢ": 2322,
      "Ġhi": 2323,
      "oImBAKS": 2324,
      "Ġhostname": 2325,
      "213": 2326,
      "TH": 2327,
      "VJ": 2328,
      "vw": 2329,
      "yR": 2330,
      "PTcp": 2331,
      "AGE": 2332,
      "Kz": 2333,
      "Ġxm": 2334,
      "LVQ": 2335,
      "ic": 2336,
      "yYE": 2337,
      "Ġ165": 2338,
      "org": 2339,
      "Ġdpkg": 2340,
      "oJjV": 2341,
      "KEk": 2342,
      "MmBd": 2343,
      "MUQ": 2344,
      "tXKVQ": 2345,
      "??": 2346,
      "Uw": 2347,
      "YMT": 2348,
      "empty": 2349,
      "hD": 2350,
      "ph": 2351,
      "sk": 2352,
      "Ġ195": 2353,
      "YtTz": 2354,
      "OEdF": 2355,
      "IT": 2356,
      "ql": 2357,
      "Ġal": 2358,
      "xad": 2359,
      "SAVE": 2360,
      "UDtXKVQ": 2361,
      "JHLVU": 2362,
      "IiF": 2363,
      "OV": 2364,
      "PV": 2365,
      "YQC": 2366,
      "ping": 2367,
      "rw": 2368,
      "Ġmin": 2369,
      "ction": 2370,
      "JylB": 2371,
      "ZFRigiQEQ": 2372,
      "234": 2373,
      "JB": 2374,
      "dg": 2375,
      "130": 2376,
      "125": 2377,
      "ĠHISTSIZE": 2378,
      "Ġsensi": 2379,
      "WEA": 2380,
      "ZV": 2381,
      "ctRS": 2382,
      "HE": 2383,
      "Mo": 2384,
      "MVM": 2385,
      "Nf": 2386,
      "PA": 2387,
      "WNVQ": 2388,
      "mt": 2389,
      "sum": 2390,
      "unset": 2391,
      "196": 2392,
      "444": 2393,
      "Ġ};": 2394,
      "Ġval": 2395,
      "tyj": 2396,
      "TOTZZRD": 2397,
      "snmpd": 2398,
      "delete": 2399,
      "Ġlol": 2400,
      "STlCYEg": 2401,
      "57": 2402,
      "GF": 2403,
      "gl": 2404,
      "hv": 2405,
      "nR": 2406,
      "ues": 2407,
      "/./": 2408,
      "ora": 2409,
      "KCJgQCgiYEAoImBAKCIh": 2410,
      "RUY": 2411,
      "235": 2412,
      "MD": 2413,
      "NjF": 2414,
      "Rtc": 2415,
      "Un": 2416,
      "kr": 2417,
      "Ġset": 2418,
      "Ġpwd": 2419,
      "peed": 2420,
      "ool": 2421,
      "VjVU": 2422,
      "commands": 2423,
      "iA": 2424,
      "Ġ95": 2425,
      "Ġdelet": 2426,
      "205": 2427,
      "XSJCYEA": 2428,
      "JiVD": 2429,
      "LOG": 2430,
      "gLXJm": 2431,
      "Ġscreen": 2432,
      "gLXJmIC": 2433,
      "123": 2434,
      "TY": 2435,
      "}]": 2436,
      "first": 2437,
      "oIiFd": 2438,
      "ready": 2439,
      "plit": 2440,
      "Ġclosed": 2441,
      "UztWLUs": 2442,
      "Ġalready": 2443,
      "pp": 2444,
      "vhost": 2445,
      "912": 2446,
      "cpRT": 2447,
      "Ġ{;": 2448,
      "Ġreinstalle": 2449,
      "downloadGHILIMEA": 2450,
      "NlM": 2451,
      "Ġ3270912": 2452,
      "remover": 2453,
      "Ġsuspect": 2454,
      "NjhAKiIx": 2455,
      "ĠINST": 2456,
      "Ġvalues": 2457,
      "Ġdeleted": 2458,
      "><": 2459,
      "kz": 2460,
      "tm": 2461,
      "ctRT": 2462,
      "PSZF": 2463,
      "cxST": 2464,
      "oJlVZKCIx": 2465,
      "Ġnuts": 2466,
      "and": 2467,
      "uz": 2468,
      "wtmp": 2469,
      "YtQT": 2470,
      "VTtG": 2471,
      "162": 2472,
      "LUk": 2473,
      "TPT": 2474,
      "WS": 2475,
      "fx": 2476,
      "pre": 2477,
      "hAK": 2478,
      "KEIw": 2479,
      "Ġtee": 2480,
      "vdG": 2481,
      "LinuxTF": 2482,
      "ible": 2483,
      "237": 2484,
      "MA": 2485,
      "Vw": 2486,
      "ZG": 2487,
      "go": 2488,
      "RTsn": 2489,
      "OEdFVDk": 2490,
      "FU": 2491,
      "Lk": 2492,
      "QDo": 2493,
      "ĠHISTSAVE": 2494,
      "oIiFS": 2495,
      "ava": 2496,
      "EAvMmBE": 2497,
      "MSMw": 2498,
      "YtSzk": 2499,
      "ZX": 2500,
      "kw": 2501,
      "of": 2502,
      "wo": 2503,
      "Ġ15": 2504,
      "208": 2505,
      "prog": 2506,
      "dirname": 2507,
      "wqKCIh": 2508,
      "mindepth": 2509,
      "xxx": 2510,
      "VjVOOS": 2511,
      "peedtest": 2512,
      "ice": 2513,
      "tH": 2514,
      "line": 2515,
      "TDk": 2516,
      "dYQC": 2517,
      "shm": 2518,
      "QCknI": 2519,
      "Ġ..": 2520,
      "giMVA": 2521,
      "ctTzhWT": 2522,
      "chQThW": 2523,
      "LVs": 2524,
      "Vll": 2525,
      "\\)": 2526,
      "bar": 2527,
      "Ġ\"{": 2528,
      "oJk": 2529,
      "NMKigi": 2530,
      "UQC": 2531,
      "Ġ\\*.": 2532,
      "Ġ23074": 2533,
      "IN": 2534,
      "Jj": 2535,
      "MVI": 2536,
      "mv": 2537,
      "rt": 2538,
      "ere": 2539,
      "Ġgcc": 2540,
      "mXVI": 2541,
      "Jc": 2542,
      "dX": 2543,
      "ga": 2544,
      "xL": 2545,
      "Ġlog": 2546,
      "unction": 2547,
      "atime": 2548,
      "siYF": 2549,
      "YlUj": 2550,
      "Ez": 2551,
      "JVI": 2552,
      "LXV": 2553,
      "aus": 2554,
      "hJ": 2555,
      "rsync": 2556,
      "ste": 2557,
      "SER": 2558,
      "YlQz": 2559,
      "EAvMmB": 2560,
      "uaX": 2561,
      "DIR": 2562,
      "LXVuaX": 2563,
      "XVQ": 2564,
      "gss": 2565,
      "jar": 2566,
      "Xzk": 2567,
      "Ġuid": 2568,
      "aul": 2569,
      "RjVU": 2570,
      "Ġ3435508": 2571,
      "tq": 2572,
      "pen": 2573,
      "Ġ3435444": 2574,
      "NTER": 2575,
      "script": 2576,
      "It": 2577,
      "JY": 2578,
      "bml": 2579,
      "dV": 2580,
      "db": 2581,
      "ig": 2582,
      "uWD": 2583,
      "vmware": 2584,
      "Ġ>&": 2585,
      "Ġping": 2586,
      "ring": 2587,
      "ĠCON": 2588,
      "folder": 2589,
      "NEC": 2590,
      "Ġcomp": 2591,
      "HQ": 2592,
      "ir": 2593,
      "mon": 2594,
      "380": 2595,
      "oImBAKCJgQCgm": 2596,
      "oJz": 2597,
      "minergate": 2598,
      "XTE": 2599,
      "ĠNOT": 2600,
      "bIkJgQCgiYEAoImBAKCJgQCgiYEA": 2601,
      "fu": 2602,
      "ns": 2603,
      "uUE": 2604,
      "vn": 2605,
      "ĠX": 2606,
      "cpQT": 2607,
      "Ġfunction": 2608,
      "KCJgQCgiI": 2609,
      "Ġ3435380": 2610,
      "aptGHILIMEA": 2611,
      "yumGHILIMEA": 2612,
      "OTcxVTxG": 2613,
      "ĠFOUNDGHILIMEA": 2614,
      "ĠYUM": 2615,
      "Ġremove": 2616,
      "ĠINSTALL": 2617,
      "NTERNET": 2618,
      "ĠCONNEC": 2619,
      "FE": 2620,
      "KyI": 2621,
      "TA": 2622,
      "dVT": 2623,
      "mn": 2624,
      "syst": 2625,
      "dest": 2626,
      "Ġnfs": 2627,
      "ang": 2628,
      "KCdUKi": 2629,
      "Cn": 2630,
      "KUE": 2631,
      "WVQ": 2632,
      "Yo": 2633,
      "clear": 2634,
      "ĠO": 2635,
      "Ġchown": 2636,
      "chTz": 2637,
      "KjIhWyJCYEA": 2638,
      "JiVU": 2639,
      "ĠEND": 2640,
      "sql": 2641,
      "WT": 2642,
      "YX": 2643,
      "dr": 2644,
      "Ġip": 2645,
      "Ġ'%": 2646,
      "dia": 2647,
      "RALz": 2648,
      "KEkuUEhA": 2649,
      "YtVT": 2650,
      "JAQi": 2651,
      "api": 2652,
      "TTk": 2653,
      "hostname": 2654,
      "dYQCt": 2655,
      "YtVTxF": 2656,
      "FKC": 2657,
      "JOFZ": 2658,
      "MihJ": 2659,
      "XE": 2660,
      "ect": 2661,
      "Ġ=": 2662,
      "ily": 2663,
      "Ġ${": 2664,
      "giMU": 2665,
      "142": 2666,
      "OTcw": 2667,
      "Ġxxxx": 2668,
      "NyNg": 2669,
      "PEZFTj": 2670,
      "ĠHISTLOG": 2671,
      "Ġ\"$(": 2672,
      "SChC": 2673,
      "CAx": 2674,
      "JgRDdVT": 2675,
      "hci": 2676,
      "Av": 2677,
      "DOl": 2678,
      "WEAr": 2679,
      "ZB": 2680,
      "Ġ53": 2681,
      "JgXT": 2682,
      "SSgnTCo": 2683,
      "comp": 2684,
      "VVs": 2685,
      "hXNVI": 2686,
      "Syo": 2687,
      "UiF": 2688,
      "UOD": 2689,
      "bX": 2690,
      "xed": 2691,
      "cate": 2692,
      "cxQT": 2693,
      "ImBE": 2694,
      "ImBd": 2695,
      "Ġsalviaw": 2696,
      "/^": 2697,
      ">/": 2698,
      "cqI": 2699,
      "dM": 2700,
      "Ġ(": 2701,
      "decode": 2702,
      "NUw": 2703,
      "xGJV": 2704,
      "Ġ3271104": 2705,
      "xGJVcqI": 2706,
      "JEA": 2707,
      "WUU": 2708,
      "Zc": 2709,
      "aa": 2710,
      "lgx": 2711,
      "na": 2712,
      "qz": 2713,
      "Ġtmp": 2714,
      "Ġday": 2715,
      "PFc": 2716,
      "00000000": 2717,
      "PCwj": 2718,
      "IDAgL": 2719,
      "Ġ23075": 2720,
      "JiVDO": 2721,
      "YlQztX": 2722,
      "EOF": 2723,
      "LEA": 2724,
      "USER": 2725,
      "ha": 2726,
      "whoami": 2727,
      "xbe": 2728,
      "xdd": 2729,
      "/.*": 2730,
      "sec": 2731,
      "KCIw": 2732,
      "IkJgQCgiYEA": 2733,
      "xWXUM": 2734,
      "Ġ32715": 2735,
      "Ġ\"{}\"": 2736,
      "KVk": 2737,
      "Qx": 2738,
      "UOj": 2739,
      "uw": 2740,
      "488": 2741,
      "Ġpgrep": 2742,
      "ctVT": 2743,
      "oQj": 2744,
      "NlVF": 2745,
      "Ġ3271488": 2746,
      "OzdEQCkm": 2747,
      "Ġuse": 2748,
      "JDBU": 2749,
      "hE": 2750,
      "hf": 2751,
      "sb": 2752,
      "wmJ": 2753,
      "225": 2754,
      "oIl": 2755,
      "opt": 2756,
      "oIjE": 2757,
      "TS": 2758,
      "cer": 2759,
      "qu": 2760,
      "atch": 2761,
      "1680": 2762,
      "lBJ": 2763,
      "IkR": 2764,
      "KEJE": 2765,
      "fsSL": 2766,
      "Ġ3271680": 2767,
      "xJKCdMKigiYEA": 2768,
      "HOME": 2769,
      "DE": 2770,
      "hw": 2771,
      "yL": 2772,
      "{}": 2773,
      "lock": 2774,
      "tifi": 2775,
      "KCIxJDBU": 2776,
      "MjU": 2777,
      "kkMSMw": 2778,
      "VPEVd": 2779,
      "oIiFSOTcxVTxG": 2780,
      "certifi": 2781,
      "kkMSMwV": 2782,
      "\")": 2783,
      "KF": 2784,
      "Ly": 2785,
      "MVQ": 2786,
      "MUM": 2787,
      "Ty": 2788,
      "][": 2789,
      "java": 2790,
      "ln": 2791,
      "rh": 2792,
      "tcp": 2793,
      "who": 2794,
      "zj": 2795,
      "109": 2796,
      "NUQC": 2797,
      "daily": 2798,
      "Ġ\"${": 2799,
      "OSY": 2800,
      "DODctRS": 2801,
      "Ġdays": 2802,
      "Cm": 2803,
      "QgL": 2804,
      "hash": 2805,
      "qx": 2806,
      "Ġ}'": 2807,
      "pic": 2808,
      "Ġ3435572": 2809,
      "KyJg": 2810,
      "BQLC": 2811,
      "RUYoIkBE": 2812,
      "certificate": 2813,
      "ak": 2814,
      "yh": 2815,
      "616": 2816,
      "1040": 2817,
      "Ġwh": 2818,
      "ota": 2819,
      "iff": 2820,
      "OTc": 2821,
      "VdOy": 2822,
      "lude": 2823,
      "Ġprocess": 2824,
      "Ġ3271040": 2825,
      "Ġ3271616": 2826,
      "cnLE": 2827,
      "lastlog": 2828,
      "PFZdQzpWNVQ": 2829,
      "RTsnLUk": 2830,
      "oJzVO": 2831,
      "/\"": 2832,
      "148": 2833,
      "CYE": 2834,
      "Ev": 2835,
      "PO": 2836,
      "Qr": 2837,
      "ZQ": 2838,
      "gk": 2839,
      "perl": 2840,
      "Ġaux": 2841,
      "fiu": 2842,
      "ali": 2843,
      "Ġfo": 2844,
      "KCIo": 2845,
      "Ġ321": 2846,
      "EAvM": 2847,
      "hosts": 2848,
      "NjFE": 2849,
      "BM": 2850,
      "Mp": 2851,
      "bSA": 2852,
      "hx": 2853,
      "hVX": 2854,
      "tro": 2855,
      "yz": 2856,
      "use": 2857,
      "Ġactivate": 2858,
      "xclude": 2859,
      "Ġfa": 2860,
      "Ġdone": 2861,
      "Ġ]:": 2862,
      "RDhW": 2863,
      "tick": 2864,
      "PSc": 2865,
      "OFZd": 2866,
      "send": 2867,
      "oImBAKCJgQCgiYEAoImBAKC": 2868,
      "Ġsuspic": 2869,
      "symbolCHE": 2870,
      "tqxc": 2871,
      "symbolCHECK": 2872,
      ";'": 2873,
      "=`": 2874,
      "cz": 2875,
      "dota": 2876,
      "sr": 2877,
      "tb": 2878,
      "Ġso": 2879,
      "stent": 2880,
      "adow": 2881,
      "siYE": 2882,
      "sistent": 2883,
      "gsba": 2884,
      "persistent": 2885,
      "progress": 2886,
      "chQThWXVQ": 2887,
      "LVM": 2888,
      "RVQ": 2889,
      "lx": 2890,
      "vMmB": 2891,
      "oQjF": 2892,
      "your": 2893,
      "BAS": 2894,
      "Jf": 2895,
      "Lj": 2896,
      "Rlh": 2897,
      "\\|": 2898,
      "khh": 2899,
      "wSEA": 2900,
      "Ġpassword": 2901,
      "mao": 2902,
      "STtH": 2903,
      "Ġyes": 2904,
      "FPPE": 2905,
      "RjFS": 2906,
      "BASH": 2907,
      "179": 2908,
      "mgz": 2909,
      "mmin": 2910,
      "xargs": 2911,
      "yes": 2912,
      "Ġ29": 2913,
      "Ġvi": 2914,
      "Ġar": 2915,
      "Ġfor": 2916,
      "NEQt": 2917,
      "QCgnLUU": 2918,
      "oJylF": 2919,
      "NJ": 2920,
      "SQS": 2921,
      "141": 2922,
      "KCJgQCgi": 2923,
      "the": 2924,
      "seq": 2925,
      "Ġ200": 2926,
      "app": 2927,
      "NzFVPE": 2928,
      "RTxX": 2929,
      "Ġadmin": 2930,
      "VNOT": 2931,
      "JOUJgSCkm": 2932,
      "NzFVPEZY": 2933,
      "Ar": 2934,
      "XEk": 2935,
      "am": 2936,
      "pdf": 2937,
      "wm": 2938,
      "woIjF": 2939,
      "xD": 2940,
      "IkctVT": 2941,
      "key": 2942,
      "Tjkn": 2943,
      "Ġvmware": 2944,
      "WUw": 2945,
      "VzVS": 2946,
      "xdev": 2947,
      "TOTZZRDxGJVcqI": 2948,
      "IkctVThC": 2949,
      "++": 2950,
      "BCKS": 2951,
      "LlBJ": 2952,
      "Wj": 2953,
      "ZA": 2954,
      "\\(": 2955,
      "ker": 2956,
      "lTPT": 2957,
      "mb": 2958,
      "uk": 2959,
      "Ġ20": 2960,
      "ine": 2961,
      "183": 2962,
      "KCIp": 2963,
      "VUx": 2964,
      "ZdUj": 2965,
      "VSO": 2966,
      "ctRTtG": 2967,
      "prestart": 2968,
      "dMRD": 2969,
      "..": 2970,
      "Ap": 2971,
      "KVM": 2972,
      "UOT": 2973,
      "hho": 2974,
      "ox": 2975,
      "pW": 2976,
      "Ġmo": 2977,
      "Ġbin": 2978,
      "644": 2979,
      "ssl": 2980,
      "Ġmys": 2981,
      "gent": 2982,
      "pJj": 2983,
      "YlRD": 2984,
      "CAvdG": 2985,
      "JzVSO": 2986,
      "oJjVM": 2987,
      "KCIxJDBULVs": 2988,
      "))": 2989,
      "Ii": 2990,
      "Jd": 2991,
      "XVM": 2992,
      "ave": 2993,
      "ext": 2994,
      "jq": 2995,
      "eth": 2996,
      "133": 2997,
      "Ġytqxc": 2998,
      "TIME": 2999,
      "MjR": 3000,
      "CAy": 3001,
      "UVMqUk": 3002,
      "NlMh": 3003,
      "LXVuaXgK": 3004,
      "ĠOK": 3005,
      "8243": 3006,
      "ATC": 3007,
      "bp": 3008,
      "nn": 3009,
      "yNS": 3010,
      "reso": 3011,
      "ipo": 3012,
      "man": 3013,
      "thhq": 3014,
      "duct": 3015,
      "MEgq": 3016,
      "QSEAoImBAKCJgQCgiYEA": 3017,
      "pJyFS": 3018,
      "oImBAKCJgQCgiYEAoIiFNPjJgRD": 3019,
      "VGKCJARD": 3020,
      "form": 3021,
      "JylBPV": 3022,
      "RjVUPTcp": 3023,
      "XTEQ": 3024,
      "khhipo": 3025,
      "thhqa": 3026,
      "161": 3027,
      "220": 3028,
      "EX": 3029,
      "PD": 3030,
      "jL": 3031,
      "tx": 3032,
      "ĠDI": 3033,
      "tern": 3034,
      "745": 3035,
      "Ġ\".*": 3036,
      "Ġ'.": 3037,
      "lhj": 3038,
      "ctdW": 3039,
      "Ġ107": 3040,
      "RFsi": 3041,
      "FOyct": 3042,
      "YMTctdW": 3043,
      "chTzxH": 3044,
      "BC": 3045,
      "DO": 3046,
      "NM": 3047,
      "Qw": 3048,
      "ache": 3049,
      "dN": 3050,
      "gf": 3051,
      "gmail": 3052,
      "ja": 3053,
      "nter": 3054,
      "split": 3055,
      "chmod": 3056,
      "low": 3057,
      "ited": 3058,
      "ckup": 3059,
      "JQQCkm": 3060,
      "ĠName": 3061,
      "PlIx": 3062,
      "8745": 3063,
      "EST": 3064,
      "MV": 3065,
      "RUM": 3066,
      "Wi": 3067,
      "fed": 3068,
      "kh": 3069,
      "we": 3070,
      "wdo": 3071,
      "yello": 3072,
      "zo": 3073,
      "shadow": 3074,
      "NFJM": 3075,
      "xce": 3076,
      "Ġbe": 3077,
      "rake": 3078,
      "OTZR": 3079,
      "mandrake": 3080,
      "RTEST": 3081,
      "OyY": 3082,
      "EOFYt": 3083,
      "VdOyw": 3084,
      "gentoo": 3085,
      "resolv": 3086,
      "ĠDIRTEST": 3087,
      "fedora": 3088,
      "wdog": 3089,
      "yellowdog": 3090,
      ":]": 3091,
      "njs": 3092,
      "pool": 3093,
      "ĠHost": 3094,
      "193": 3095,
      "ench": 3096,
      "UkRAPlBIQCgiYEA": 3097,
      "ODc": 3098,
      "PCZdUj": 3099,
      "YpWT": 3100,
      "----": 3101,
      "United": 3102,
      "UnitedLinux": 3103,
      "bad": 3104,
      "gc": 3105,
      "lD": 3106,
      "pri": 3107,
      "sg": 3108,
      "Ġhello": 3109,
      "NER": 3110,
      "yIo": 3111,
      "PCcp": 3112,
      "Ġ'\"'\"'/": 3113,
      "NyNgUC": 3114,
      "wmJUM": 3115,
      "fiuvd": 3116,
      "\";": 3117,
      "$(": 3118,
      "INER": 3119,
      "RJ": 3120,
      "TEA": 3121,
      "bench": 3122,
      "exclude": 3123,
      "hH": 3124,
      "hgr": 3125,
      "pm": 3126,
      "zw": 3127,
      "ĠĠĠĠĠĠĠ": 3128,
      "LISTE": 3129,
      "Ġsys": 3130,
      "sta": 3131,
      "Ġpmon": 3132,
      "ord": 3133,
      "rap": 3134,
      "UUU": 3135,
      "Ġopen": 3136,
      "VylU": 3137,
      "remote": 3138,
      "AgICAgIC": 3139,
      "nRhci": 3140,
      "JOFZM": 3141,
      "bXAv": 3142,
      "LISTEN": 3143,
      "122": 3144,
      "173": 3145,
      "UT": 3146,
      "WUk": 3147,
      "ehd": 3148,
      "wmXVI": 3149,
      "134": 3150,
      "mem": 3151,
      "Ġ291": 3152,
      "KCJgQCgiYEAoImBA": 3153,
      "VDOl": 3154,
      "OFYl": 3155,
      "Ġrev": 3156,
      "YxQz": 3157,
      "gjVV": 3158,
      "IpIy": 3159,
      "alias": 3160,
      "RjFSODc": 3161,
      "ehdbp": 3162,
      "251": 3163,
      "FPE": 3164,
      "hj": 3165,
      "vo": 3166,
      "watch": 3167,
      "KCc": 3168,
      "urllib": 3169,
      "cpuGHILIMEA": 3170,
      "ĠMINER": 3171,
      "KEJEWyJCYEA": 3172,
      "QTw": 3173,
      "UjtC": 3174,
      "yoyIVsiQmBA": 3175,
      "curlGHILIMEA": 3176,
      "EpNEQt": 3177,
      "gqbs": 3178,
      "valueGHILIMEA": 3179,
      "PATH": 3180,
      "ĠCONNECTION": 3181,
      "YlQztXMUU": 3182,
      "oJylFPSc": 3183,
      "SQSpW": 3184,
      "ĠOKGHILIMEA": 3185,
      "976": 3186,
      "Kk": 3187,
      "LOTcw": 3188,
      "SQE": 3189,
      "Vb": 3190,
      "jh": 3191,
      "sile": 3192,
      "sub": 3193,
      "smi": 3194,
      "xample": 3195,
      "giMT": 3196,
      "Ġ.*": 3197,
      "plunt": 3198,
      "SThW": 3199,
      "PzhXNVI": 3200,
      "bIkJgQD": 3201,
      "messages": 3202,
      "RiVX": 3203,
      "Ġkillall": 3204,
      "Ġ3270976": 3205,
      "mXVM": 3206,
      "169": 3207,
      "254": 3208,
      "XVI": 3209,
      "diff": 3210,
      "gy": 3211,
      "gti": 3212,
      "lP": 3213,
      "lc": 3214,
      "lt": 3215,
      "wp": 3216,
      "zf": 3217,
      "oth": 3218,
      "JgRC": 3219,
      "143": 3220,
      "location": 3221,
      "STtG": 3222,
      "RAKE": 3223,
      "pJDE": 3224,
      "acle": 3225,
      "qMl": 3226,
      "kjN": 3227,
      "NlFT": 3228,
      "tSREA": 3229,
      "Ġ3271552": 3230,
      "yNSkjN": 3231,
      "pJDEj": 3232,
      "$'": 3233,
      "='": 3234,
      "FF": 3235,
      "JVU": 3236,
      "MC": 3237,
      "NA": 3238,
      "ZONE": 3239,
      "cq": 3240,
      "can": 3241,
      "dPl": 3242,
      "ess": 3243,
      "speedtest": 3244,
      "Ġasd": 3245,
      "112": 3246,
      "Ġ255": 3247,
      "UkxI": 3248,
      "ĠHISTZONE": 3249,
      "Ġtemp": 3250,
      "wqKCJgQD": 3251,
      "RtcC": 3252,
      "XEkoJ": 3253,
      "lTPTYo": 3254,
      ":\\": 3255,
      "JzF": 3256,
      "Mi": 3257,
      "day": 3258,
      "eme": 3259,
      "jkl": 3260,
      "koJ": 3261,
      "mk": 3262,
      "yy": 3263,
      "OTY": 3264,
      "KCJgQCgiYEAoImBAKCJgQCgiYEA": 3265,
      "PFZFRigiQEQ": 3266,
      "Tjo": 3267,
      "QSEAoImBA": 3268,
      "PjcxRTx": 3269,
      "QCgnKUU": 3270,
      "IhVTtG": 3271,
      "udGF": 3272,
      "âĢĿ": 3273,
      "lBAKE": 3274,
      "RzFB": 3275,
      "VjVOOScpQT": 3276,
      "yLmd": 3277,
      "udGFyLmd": 3278,
      "UO": 3279,
      "VB": 3280,
      "bg": 3281,
      "bm": 3282,
      "br": 3283,
      "uL": 3284,
      "ude": 3285,
      "Ġ';'": 3286,
      "elp": 3287,
      "ayj": 3288,
      "pJV": 3289,
      "OjZV": 3290,
      "REU": 3291,
      "htjf": 3292,
      "EAvMiF": 3293,
      "JkVNOT": 3294,
      "ĠWATC": 3295,
      "NzFFPF": 3296,
      "ĠEnter": 3297,
      "gaib": 3298,
      "oJjVMPFZFRigiQEQ": 3299,
      "ĠWATCH": 3300,
      "BXTEQ": 3301,
      "JF": 3302,
      "Tjs": 3303,
      "dCAx": 3304,
      "gfs": 3305,
      "iss": 3306,
      "mar": 3307,
      "Ġless": 3308,
      "KCJgQF": 3309,
      "oImBAPzBI": 3310,
      "190": 3311,
      "filename": 3312,
      "ĠHISTFILESIZE": 3313,
      "btg": 3314,
      "basename": 3315,
      "kyw": 3316,
      "sshmomentv": 3317,
      "gssr": 3318,
      "NlMhPS": 3319,
      "Ġ25565": 3320,
      "emex": 3321,
      "236": 3322,
      "DA": 3323,
      "File": 3324,
      "Tl": 3325,
      "aut": 3326,
      "jo": 3327,
      "pub": 3328,
      "qJ": 3329,
      "tIC": 3330,
      "xJC": 3331,
      "Ġ\"\\": 3332,
      "oImBAKCJgRD": 3333,
      "VIDI": 3334,
      "NzVJ": 3335,
      "Ġfilename": 3336,
      "xGNVQ": 3337,
      "MTUw": 3338,
      "ysm": 3339,
      "mJVQ": 3340,
      "wqKCJgQCgiYEAoImBA": 3341,
      "ĠNVIDI": 3342,
      "NylO": 3343,
      "NylW": 3344,
      "UmBdLzJg": 3345,
      "pJyFSOjZZ": 3346,
      "issue": 3347,
      "ĠNVIDIA": 3348,
      "Be": 3349,
      "Ew": 3350,
      "LUM": 3351,
      "Mv": 3352,
      "Nk": 3353,
      "UF": 3354,
      "XF": 3355,
      "bb": 3356,
      "bIk": 3357,
      "ger": 3358,
      "nproc": 3359,
      "Ġ@": 3360,
      "shu": 3361,
      "//'": 3362,
      "Ġ1234": 3363,
      "siYEQ": 3364,
      "vidia": 3365,
      "hics": 3366,
      "NiA": 3367,
      "wjTCo": 3368,
      "bam": 3369,
      "MFE": 3370,
      "gpus": 3371,
      "LSM": 3372,
      "ĠGrap": 3373,
      "ixws": 3374,
      "qMiFbIkJgQCgiYEA": 3375,
      "KEJEWy": 3376,
      "IkctVThCI": 3377,
      "FOyctSTlCYEg": 3378,
      "silent": 3379,
      "ĠGraphics": 3380,
      "FT": 3381,
      "RDo": 3382,
      "ly": 3383,
      "187": 3384,
      "ath": 3385,
      "sign": 3386,
      "Ġ'^": 3387,
      "ygt": 3388,
      "systemd": 3389,
      "grub": 3390,
      "LATE": 3391,
      "hkd": 3392,
      "goof": 3393,
      "Ġusage": 3394,
      "ogin": 3395,
      "ygjVF": 3396,
      "Ġxmr": 3397,
      "chTzxHMUE": 3398,
      "MMA": 3399,
      "RI": 3400,
      "[:": 3401,
      "gme": 3402,
      "gNiA": 3403,
      "hysm": 3404,
      "jPlIx": 3405,
      "qU": 3406,
      "sM": 3407,
      "tk": 3408,
      "xox": 3409,
      "Ġ644": 3410,
      "mphysm": 3411,
      "ntftp": 3412,
      "fiel": 3413,
      "ifkw": 3414,
      "chwq": 3415,
      "gihho": 3416,
      "itht": 3417,
      "544": 3418,
      "ipa": 3419,
      "sibtg": 3420,
      "Ġ\"/": 3421,
      "uxifkw": 3422,
      "geja": 3423,
      "Nyk": 3424,
      "vegc": 3425,
      "NERF": 3426,
      "hdlu": 3427,
      "hpud": 3428,
      "Ġ3277544": 3429,
      "NVXi": 3430,
      "ghmw": 3431,
      "ishjkl": 3432,
      "wqKCJgQCgiYEAoImBAKCJgQCgiYEA": 3433,
      "wiate": 3434,
      "hcqx": 3435,
      "gqpi": 3436,
      "gput": 3437,
      "UmBE": 3438,
      "ahzj": 3439,
      "ahipa": 3440,
      "agxox": 3441,
      "heso": 3442,
      "wLy": 3443,
      "iwgh": 3444,
      "zuixws": 3445,
      "WEArVV": 3446,
      "hxiw": 3447,
      "theuk": 3448,
      "UVMqUkE": 3449,
      "hgrz": 3450,
      "ygtus": 3451,
      "MMAND": 3452,
      "gNiAtc": 3453,
      "chwqf": 3454,
      "ithtlu": 3455,
      "vegcip": 3456,
      "ghmwm": 3457,
      "ahzji": 3458,
      "El": 3459,
      "YD": 3460,
      "fr": 3461,
      "ick": 3462,
      "ject": 3463,
      "qr": 3464,
      "sf": 3465,
      "tg": 3466,
      "ucn": 3467,
      "etch": 3468,
      "fikt": 3469,
      "string": 3470,
      "peC": 3471,
      "opy": 3472,
      "ayh": 3473,
      "hihkd": 3474,
      "SSAGE": 3475,
      "MESSAGE": 3476,
      "Ujo": 3477,
      "PUY": 3478,
      "hdsu": 3479,
      "imlc": 3480,
      "htki": 3481,
      "UDxG": 3482,
      "ikhtki": 3483,
      "TYPE": 3484,
      "DOlY": 3485,
      "lhjvw": 3486,
      "bmMv": 3487,
      "ucnN": 3488,
      "fiktv": 3489,
      "MESSAGES": 3490,
      "BS": 3491,
      "JMS": 3492,
      "Ml": 3493,
      "dUQC": 3494,
      "nice": 3495,
      "qrc": 3496,
      "Ġinfo": 3497,
      "ilna": 3498,
      "Ġ[-": 3499,
      "QDk": 3500,
      "htmn": 3501,
      "ugqrc": 3502,
      "VzFFPF": 3503,
      "NIX": 3504,
      "COL": 3505,
      "hyie": 3506,
      "YtQTxW": 3507,
      "QwVC": 3508,
      "fields": 3509,
      "170": 3510,
      "375": 3511,
      "KUk": 3512,
      "UjF": 3513,
      "VR": 3514,
      "ZW": 3515,
      "ax": 3516,
      "qd": 3517,
      "sx": 3518,
      "whb": 3519,
      "yav": 3520,
      "ĠT": 3521,
      "otal": 3522,
      "Ġ212": 3523,
      "chUjo": 3524,
      "Ġ'.*": 3525,
      "Ġnvidia": 3526,
      "sshd": 3527,
      "umber": 3528,
      "Ujg": 3529,
      "ZFQzp": 3530,
      "riyav": 3531,
      "pattern": 3532,
      "yIUU": 3533,
      "ĠUNIX": 3534,
      "gprh": 3535,
      "MEhAKCIh": 3536,
      "COLLATE": 3537,
      "37516": 3538,
      "whbdn": 3539,
      "230": 3540,
      "CTYPE": 3541,
      "Hc": 3542,
      "Yg": 3543,
      "fa": 3544,
      "svn": 3545,
      "yZ": 3546,
      "xab": 3547,
      "156": 3548,
      "ssion": 3549,
      "145": 3550,
      "uxick": 3551,
      "oJC": 3552,
      "25000": 3553,
      "KjJc": 3554,
      "Ġ3277352": 3555,
      "csQC": 3556,
      "RkVDOl": 3557,
      "klXT": 3558,
      "JHVCo": 3559,
      "Ġ3277480": 3560,
      "FBOFZd": 3561,
      "PSZFTTk": 3562,
      "PCcpSTtH": 3563,
      "uxicka": 3564,
      "\"'": 3565,
      "272": 3566,
      "NEA": 3567,
      "UAGE": 3568,
      "]+": 3569,
      "lI": 3570,
      "pu": 3571,
      "put": 3572,
      "xy": 3573,
      "Ġ)": 3574,
      "Ġ181": 3575,
      "Ġmount": 3576,
      "mport": 3577,
      "otftp": 3578,
      "Ġgit": 3579,
      "lscpu": 3580,
      "text": 3581,
      "sigsba": 3582,
      "disc": 3583,
      "ctl": 3584,
      "jFS": 3585,
      "gema": 3586,
      "ĠLS": 3587,
      "ano": 3588,
      "MER": 3589,
      "tXDk": 3590,
      "Ġ3277208": 3591,
      "Ġ3277272": 3592,
      "slap": 3593,
      "JgXSgi": 3594,
      "KCdMKigi": 3595,
      "ĠLANGUAGE": 3596,
      "lBAKS": 3597,
      "oImBAKCJgQCgiYEQ": 3598,
      "Ġ3277400": 3599,
      "lgxOS": 3600,
      "PCwjYF": 3601,
      "Ġopenssl": 3602,
      "EpNEQtPzhXNVI": 3603,
      "NlFTOjY": 3604,
      "tXDkQ": 3605,
      "($": 3606,
      "BLO": 3607,
      "MONE": 3608,
      "TTCo": 3609,
      "Ym": 3610,
      "]'": 3611,
      "dKCNUQC": 3612,
      "nst": 3613,
      "wVE": 3614,
      "xu": 3615,
      "proper": 3616,
      "KigiYEA": 3617,
      "ties": 3618,
      "NUMER": 3619,
      "UMAN": 3620,
      "setup": 3621,
      "ZZTDk": 3622,
      "LORS": 3623,
      "QmBE": 3624,
      "COLORS": 3625,
      "FAs": 3626,
      "ĠHUMAN": 3627,
      "Ġmining": 3628,
      "TARY": 3629,
      "lTPTYoQD": 3630,
      "FTKl": 3631,
      "MMANDS": 3632,
      "BLOCKS": 3633,
      "MONETARY": 3634,
      "properties": 3635,
      "NUMERIC": 3636,
      "/,": 3637,
      "Il": 3638,
      "PEA": 3639,
      "bKS": 3640,
      "dB": 3641,
      "hL": 3642,
      "lthhqa": 3643,
      "oT": 3644,
      "oss": 3645,
      "qq": 3646,
      "sz": 3647,
      "Ġlib": 3648,
      "Ġ50": 3649,
      "Ġtbin": 3650,
      "Ġhave": 3651,
      "lex": 3652,
      "chown": 3653,
      "8888": 3654,
      "ĠPemex": 3655,
      "KiJY": 3656,
      "hive": 3657,
      "hhbam": 3658,
      "untu": 3659,
      "VylUOD": 3660,
      "115": 3661,
      "INTERNET": 3662,
      "NEAvN": 3663,
      "QU": 3664,
      "Re": 3665,
      "Ul": 3666,
      "UCo": 3667,
      "bh": 3668,
      "cal": 3669,
      "sGHILIMEA": 3670,
      "uQ": 3671,
      "yle": 3672,
      "Ġkeep": 3673,
      "Ġlocation": 3674,
      "Ġcaus": 3675,
      "eros": 3676,
      "oIyR": 3677,
      "Ġfetch": 3678,
      "ller": 3679,
      "27128": 3680,
      "Ġ[{": 3681,
      "oJzF": 3682,
      "Ġinstallation": 3683,
      "umn": 3684,
      "ĠLogin": 3685,
      "KCIhTT": 3686,
      "ICO": 3687,
      "UEhAKCJgQCgiYEA": 3688,
      "OyZd": 3689,
      "11127128": 3690,
      "gtftp": 3691,
      "grQk": 3692,
      "gbry": 3693,
      "cprGHILIMEA": 3694,
      "ĠNumber": 3695,
      "ZFTjk": 3696,
      "ĠPIDGHILIMEA": 3697,
      "ĠinstalledGHILIMEA": 3698,
      "oImBAKCZVWS": 3699,
      "Ġ3277416": 3700,
      "unzipGHILIMEA": 3701,
      "Ġhigh": 3702,
      "}],": 3703,
      "}]}],": 3704,
      "Ġreinstalled": 3705,
      "ĠreinstalledGHILIMEA": 3706,
      "ING": 3707,
      "YlUjl": 3708,
      "Ġcompat": 3709,
      "oIiFSOTcxVTxGWEA": 3710,
      "Ġwhile": 3711,
      "Ġprocesses": 3712,
      "Ġsuspicion": 3713,
      "NzFVPEZYQD": 3714,
      "TjknKUE": 3715,
      "Ġytqxcgtftp": 3716,
      "Ġbeen": 3717,
      "qMlxJKCdMKigiYEA": 3718,
      "IhVTtGUUU": 3719,
      "ossible": 3720,
      "Ġcauses": 3721,
      "BPFY": 3722,
      "VY": 3723,
      "example": 3724,
      "Ġax": 3725,
      "360": 3726,
      "chgz": 3727,
      "KCJgQCgiYEBf": 3728,
      "comm": 3729,
      "update": 3730,
      "ralex": 3731,
      "KSM": 3732,
      "RTIw": 3733,
      "wqXygiYEA": 3734,
      "UzxS": 3735,
      "OFY": 3736,
      "VOOS": 3737,
      "oIjFQOD": 3738,
      "KCdU": 3739,
      "VdQz": 3740,
      "UCwj": 3741,
      "ZRSTtG": 3742,
      "sqJ": 3743,
      "gjVEAp": 3744,
      "xALzNUQC": 3745,
      "jfralex": 3746,
      "Ġcontro": 3747,
      "IrImB": 3748,
      "YtVTxFXVM": 3749,
      "QxIz": 3750,
      "DODctRSgjVV": 3751,
      "cnLEsqJ": 3752,
      "hVXVM": 3753,
      "Ġfajfralex": 3754,
      "chgzx": 3755,
      "Ġcontroller": 3756,
      "FJ": 3757,
      "Jhc": 3758,
      "NUk": 3759,
      "Pi": 3760,
      "QPEZFTj": 3761,
      "SF": 3762,
      "Vf": 3763,
      "Ys": 3764,
      "bIkBI": 3765,
      "dl": 3766,
      "lumn": 3767,
      "tD": 3768,
      "ta": 3769,
      "ven": 3770,
      "onMVQ": 3771,
      "Ġstr": 3772,
      "siQE": 3773,
      "ĠPro": 3774,
      "ohe": 3775,
      "KEJQQC": 3776,
      "JCYEBf": 3777,
      "lzgema": 3778,
      "oIiFTOTZZRDxGJVcqI": 3779,
      "XSJA": 3780,
      "TCpf": 3781,
      "hbda": 3782,
      "Uygi": 3783,
      "ioy": 3784,
      "cmME": 3785,
      "knIUE": 3786,
      "kkRTIw": 3787,
      "oImBAKCJgQCgiIV": 3788,
      "SPSYk": 3789,
      "oQjBR": 3790,
      "pJyFSOjZZVD": 3791,
      "grQkhJ": 3792,
      "kkRTIwVV": 3793,
      ":%": 3794,
      "ATI": 3795,
      "AMD": 3796,
      "jhr": 3797,
      "kp": 3798,
      "pIz": 3799,
      "src": 3800,
      "zfiuvd": 3801,
      "Ġ7": 3802,
      "137": 3803,
      "Ġwor": 3804,
      "rop": 3805,
      "Ġ142": 3806,
      "admin": 3807,
      "search": 3808,
      "ram": 3809,
      "YERf": 3810,
      "uts": 3811,
      "OUg": 3812,
      "PEYl": 3813,
      "oIiFNPjJgRD": 3814,
      "JAQj": 3815,
      "JylF": 3816,
      "Ġcore": 3817,
      "OzdEQC": 3818,
      "OEAqIjFDODctRSgjVV": 3819,
      "Ġmysql": 3820,
      "bXAvL": 3821,
      "TjsmNVM": 3822,
      "KEJEWyJHVCo": 3823,
      "Ġcompatible": 3824,
      "jhrbn": 3825,
      ",'": 3826,
      "898": 3827,
      "BALz": 3828,
      "KEA": 3829,
      "Ns": 3830,
      "aW": 3831,
      "iQE": 3832,
      "jz": 3833,
      "jit": 3834,
      "wzTCo": 3835,
      "yYEg": 3836,
      "Ġ73": 3837,
      "ilZ": 3838,
      "ona": 3839,
      "ror": 3840,
      "336": 3841,
      "str": 3842,
      "siIT": 3843,
      "target": 3844,
      "ctime": 3845,
      "TzxX": 3846,
      "xGP": 3847,
      "Ġdirname": 3848,
      "QCgnVEA": 3849,
      "luYy": 3850,
      "giMUM": 3851,
      "hkcq": 3852,
      "JgXSgj": 3853,
      "xALzdYQCt": 3854,
      "cxRTxXT": 3855,
      "lGXVI": 3856,
      "QCgnVCooImBA": 3857,
      "ItP": 3858,
      "KyIhM": 3859,
      "drl": 3860,
      "JgRDdVTFA": 3861,
      "ZBTzxX": 3862,
      "MjUpIz": 3863,
      "NzVJPU": 3864,
      "shuoy": 3865,
      "KEJQQChC": 3866,
      "8989": 3867,
      "jitar": 3868,
      "129": 3869,
      "LF": 3870,
      "OOT": 3871,
      "jZ": 3872,
      "nh": 3873,
      "qJS": 3874,
      "ypS": 3875,
      "ination": 3876,
      "Ġ173": 3877,
      "style": 3878,
      "Ġ\\!": 3879,
      "hWXU": 3880,
      "kmOUg": 3881,
      "Qzg": 3882,
      "VOOT": 3883,
      "Ġ3277336": 3884,
      "ghv": 3885,
      "GET": 3886,
      "NjM": 3887,
      "webhooks": 3888,
      "backup": 3889,
      "jdc": 3890,
      "wheq": 3891,
      "NlFTOT": 3892,
      "Ġlogout": 3893,
      "destination": 3894,
      "KCdUKigiYEA": 3895,
      "RjVUPTcpTi": 3896,
      "RFsiR": 3897,
      "jhjdc": 3898,
      "NERFNjM": 3899,
      "wheqd": 3900,
      "Fg": 3901,
      "NL": 3902,
      "NZ": 3903,
      "Pro": 3904,
      "UID": 3905,
      "Vc": 3906,
      "WA": 3907,
      "aX": 3908,
      "rq": 3909,
      "ifs": 3910,
      "lig": 3911,
      "KCJgQCgmVVkoIjF": 3912,
      "sigqbs": 3913,
      "clude": 3914,
      "ĠMEX": 3915,
      "4200": 3916,
      "Uzo": 3917,
      "TCooImBAKCJgQCgiYEAoImBAKCIh": 3918,
      "OFc": 3919,
      "QSEAoImBAKCJgQCgiYEAoImBAKC": 3920,
      "tnlp": 3921,
      "LSc": 3922,
      "oImBAKCJgQCgiIU": 3923,
      "lvl": 3924,
      "oIiFdIkJg": 3925,
      "VwID": 3926,
      "uWDEz": 3927,
      "CnNs": 3928,
      "LjE": 3929,
      "OTZRUzo": 3930,
      "NAME": 3931,
      "ZWVwID": 3932,
      "ItPygjVF": 3933,
      "ĠMEXICO": 3934,
      "CnNsZWVwID": 3935,
      ">&": 3936,
      "DN": 3937,
      "NOTc": 3938,
      "Rvd": 3939,
      "lm": 3940,
      "mhh": 3941,
      "JgTz": 3942,
      "orona": 3943,
      "xtw": 3944,
      "Ġno": 3945,
      "pidny": 3946,
      "ODYx": 3947,
      "QSEAoImBAKCIh": 3948,
      "hhit": 3949,
      "ihM": 3950,
      "MSQwVC": 3951,
      "RlVZKCIx": 3952,
      "EkLSM": 3953,
      "XXXX": 3954,
      "ĠâĢľ": 3955,
      "ctTzhWTUU": 3956,
      "RvdGE": 3957,
      "mhhxtw": 3958,
      "AI": 3959,
      "KD": 3960,
      "LL": 3961,
      "Qg": 3962,
      "RCo": 3963,
      "SV": 3964,
      "az": 3965,
      "cmin": 3966,
      "zli": 3967,
      "Ġto": 3968,
      "Ġwww": 3969,
      "cpp": 3970,
      "dex": 3971,
      "cxQS": 3972,
      "PzBJ": 3973,
      "iUEA": 3974,
      "KCNUQD": 3975,
      "VzVC": 3976,
      "oshkyw": 3977,
      "vwgaib": 3978,
      "mgzot": 3979,
      "txhtjf": 3980,
      "daystart": 3981,
      "NVXigi": 3982,
      "\",": 3983,
      "174": 3984,
      "GZ": 3985,
      "JBP": 3986,
      "Ln": 3987,
      "ORM": 3988,
      "lmao": 3989,
      "qO": 3990,
      "sgx": 3991,
      "uf": 3992,
      "wc": 3993,
      "zc": 3994,
      "136": 3995,
      "Ġweb": 3996,
      "Ġsi": 3997,
      "Ġsmb": 3998,
      "ubuntu": 3999,
      "RALD": 4000,
      "nouser": 4001,
      "ahgssr": 4002,
      "IoSS": 4003,
      "pace": 4004,
      "scripts": 4005,
      "Ġmyfile": 4006,
      "secure": 4007,
      "FBOFZdVDk": 4008,
      "YmIG": 4009,
      "JBPD": 4010,
      "sgxrw": 4011,
      "Ġsmbfs": 4012,
      "!!": 4013,
      "\"|": 4014,
      "164": 4015,
      "210": 4016,
      "2000": 4017,
      "Ak": 4018,
      "FOUND": 4019,
      "HD": 4020,
      "JtIC": 4021,
      "JjFS": 4022,
      "KFI": 4023,
      "QA": 4024,
      "VlF": 4025,
      "iYF": 4026,
      "jTCo": 4027,
      "zb": 4028,
      "Ġcifs": 4029,
      "ils": 4030,
      "Ġshow": 4031,
      "atform": 4032,
      "syn": 4033,
      "platform": 4034,
      "mage": 4035,
      "ĠPLA": 4036,
      "Nycs": 4037,
      "pJk": 4038,
      "QTkm": 4039,
      "QSCo": 4040,
      "MEg": 4041,
      "OjYtS": 4042,
      "KCIxUDg": 4043,
      "TFORM": 4044,
      "LlBIQCgiI": 4045,
      "knLUU": 4046,
      "uUEhAKCJgQCgiYEAoImBAKCJg": 4047,
      "BOKk": 4048,
      "LlBIQCgiYEAoImBAKCJgQCgiYEA": 4049,
      "MFdMRD": 4050,
      "gmtg": 4051,
      "????": 4052,
      "uWDE": 4053,
      "ĠENDFOUND": 4054,
      "Ġsome": 4055,
      "klXTss": 4056,
      "ghvhp": 4057,
      "ĠPLATFORM": 4058,
      "200": 4059,
      "ATION": 4060,
      "Bd": 4061,
      "TyoyIVsiQmBA": 4062,
      "cle": 4063,
      "dd": 4064,
      "free": 4065,
      "ore": 4066,
      "pv": 4067,
      "par": 4068,
      "xSTE": 4069,
      "yUEA": 4070,
      "zcat": 4071,
      "zVEA": 4072,
      "include": 4073,
      "Ġgp": 4074,
      "lsb": 4075,
      "omain": 4076,
      "iphj": 4077,
      "map": 4078,
      "Ġ'$": 4079,
      "Ġnano": 4080,
      "lBAL": 4081,
      "Ġyo": 4082,
      "PCYlQztXMUU": 4083,
      "Ġreboot": 4084,
      "qIlh": 4085,
      "PjEm": 4086,
      "KUc": 4087,
      "VFsiQmBA": 4088,
      "ZRRTxX": 4089,
      "Ġconfig": 4090,
      "cxSTs": 4091,
      "uUEld": 4092,
      "yzgoof": 4093,
      "VzVSN": 4094,
      "CAyPjEm": 4095,
      "pJDEjMFdMRD": 4096,
      "iphjli": 4097,
      "CPU": 4098,
      "CPjcxRTx": 4099,
      "JG": 4100,
      "TV": 4101,
      "WUE": 4102,
      "agr": 4103,
      "btheuk": 4104,
      "bygtus": 4105,
      "cj": 4106,
      "cghmwm": 4107,
      "egihho": 4108,
      "iahzji": 4109,
      "kahipa": 4110,
      "lJ": 4111,
      "lchwqf": 4112,
      "ret": 4113,
      "yuw": 4114,
      "ysibtg": 4115,
      "ywiate": 4116,
      "yagxox": 4117,
      "lohgrz": 4118,
      "cpfs": 4119,
      "ite": 4120,
      "wkgeja": 4121,
      "sihq": 4122,
      "Ġ\".": 4123,
      "Ġ'[": 4124,
      "Ġmtm": 4125,
      "uptime": 4126,
      "Ġncpfs": 4127,
      "Ġdu": 4128,
      "core": 4129,
      "kmNU": 4130,
      "bIkJgQCgiI": 4131,
      "avheso": 4132,
      "Ġreal": 4133,
      "ebiwgh": 4134,
      "NMKiJCYEA": 4135,
      "Ġvmh": 4136,
      "luhcqx": 4137,
      "xxu": 4138,
      "hkrc": 4139,
      "QmBIKSYtQTxW": 4140,
      "tfhxiw": 4141,
      "zhm": 4142,
      "nsgqpi": 4143,
      "jqhdlu": 4144,
      "nnhpud": 4145,
      "IpIyRC": 4146,
      "gtigme": 4147,
      "othxxu": 4148,
      "bggpus": 4149,
      "bbgput": 4150,
      "RDomXVM": 4151,
      "discord": 4152,
      "ligang": 4153,
      "zliyuw": 4154,
      "Ġgpfs": 4155,
      "agrrn": 4156,
      "sihqhk": 4157,
      "Ġmtmfs": 4158,
      "Ġvmhgfs": 4159,
      "CYEQ": 4160,
      "HOTcx": 4161,
      "QNz": 4162,
      "RL": 4163,
      "Uv": 4164,
      "Xj": 4165,
      "XUk": 4166,
      "Yml": 4167,
      "dUKi": 4168,
      "fdf": 4169,
      "iB": 4170,
      "nlhjvw": 4171,
      "oP": 4172,
      "qehdbp": 4173,
      "uhihkd": 4174,
      "wb": 4175,
      "ynx": 4176,
      "yEv": 4177,
      "yfiktv": 4178,
      "Ġde": 4179,
      "ild": 4180,
      "cpVj": 4181,
      "lic": 4182,
      "execdir": 4183,
      "peAp": 4184,
      "foew": 4185,
      "OTcp": 4186,
      "ssht": 4187,
      "IkxJ": 4188,
      "pcd": 4189,
      "VEIqM": 4190,
      "ygm": 4191,
      "Ozch": 4192,
      "Ozct": 4193,
      "MjB": 4194,
      "NVFTKl": 4195,
      "Ġlynx": 4196,
      "ĠIyEv": 4197,
      "VFE": 4198,
      "VjRA": 4199,
      "dhpcd": 4200,
      "rsfdf": 4201,
      "TOTcpVj": 4202,
      "wqKCJgQCgi": 4203,
      "Ġimport": 4204,
      "gKY": 4205,
      "mwhdsu": 4206,
      "oshayj": 4207,
      "TCgiKT": 4208,
      "uzimlc": 4209,
      "UkxINy": 4210,
      "QmBIKSYtQTxWNEAvN": 4211,
      "YmluL": 4212,
      "foewrsfdf": 4213,
      "ĠIyEvYmluL": 4214,
      "BB": 4215,
      "Et": 4216,
      "KjV": 4217,
      "TX": 4218,
      "Uh": 4219,
      "UihJ": 4220,
      "YK": 4221,
      "Zf": 4222,
      "oQk": 4223,
      "uh": 4224,
      "vel": 4225,
      "wx": 4226,
      "are": 4227,
      "lename": 4228,
      "gisd": 4229,
      "QCkkMSMwV": 4230,
      "Ġbr": 4231,
      "ips": 4232,
      "thhyie": 4233,
      "viilna": 4234,
      "SEBf": 4235,
      "hAKS": 4236,
      "RTw": 4237,
      "pJlF": 4238,
      "QTxH": 4239,
      "MEM": 4240,
      "gzlp": 4241,
      "ZFUj": 4242,
      "JETyoyIVsiQmBA": 4243,
      "ages": 4244,
      "BIKS": 4245,
      "WEg": 4246,
      "VjVS": 4247,
      "ImBa": 4248,
      "MzUt": 4249,
      "vdhtmn": 4250,
      "yYFE": 4251,
      "ĠFAI": 4252,
      "Dkp": 4253,
      "KlJM": 4254,
      "pthayh": 4255,
      "Ġkyggb": 4256,
      "NIWj": 4257,
      "tXKEA": 4258,
      "QCoiMUM": 4259,
      "oJkVGKC": 4260,
      "oJzVOOyY": 4261,
      "mark": 4262,
      "Ġ123456": 4263,
      "MEhAKCIhRTsnLUk": 4264,
      "KiJYS": 4265,
      "QxIzBXTEQ": 4266,
      "ĠProduct": 4267,
      "gisdfoewrsfdf": 4268,
      "As": 4269,
      "BOzY": 4270,
      "CC": 4271,
      "IVI": 4272,
      "NPFY": 4273,
      "TKCIw": 4274,
      "UOTct": 4275,
      "dSYF": 4276,
      "drop": 4277,
      "eve": 4278,
      "fwhbdn": 4279,
      "hFI": 4280,
      "mJi": 4281,
      "nNVI": 4282,
      "nVVs": 4283,
      "password": 4284,
      "va": 4285,
      "vy": 4286,
      "Ġma": 4287,
      "Ġlast": 4288,
      "Ġas": 4289,
      "und": 4290,
      "012": 4291,
      "JgRF": 4292,
      "oracle": 4293,
      "Ġ89": 4294,
      "OTZ": 4295,
      "oImBAKCJgQCgiYEAoImBAKCJgQD": 4296,
      "NyFP": 4297,
      "Tzo": 4298,
      "ODcp": 4299,
      "NEW": 4300,
      "QzdSYF": 4301,
      "Ġ033": 4302,
      "QEI": 4303,
      "VyxAKS": 4304,
      "RUPEA": 4305,
      "RAKSct": 4306,
      "UyU": 4307,
      "KTNE": 4308,
      "JUQ": 4309,
      "QtKz": 4310,
      "LzJgQi": 4311,
      "DODZZ": 4312,
      "MyQ": 4313,
      "KVY": 4314,
      "wqKCIhTT": 4315,
      "zwgprh": 4316,
      "oJzFJOzY": 4317,
      "oIjFQODYtTz": 4318,
      "oIiFTOTZZRDxGJVcqIik": 4319,
      "DkpMyQ": 4320,
      "TKCIwQzdSYF": 4321,
      "mJiB": 4322,
      "-%": 4323,
      "113": 4324,
      "720": 4325,
      "Ff": 4326,
      "Fx": 4327,
      "Ms": 4328,
      "PN": 4329,
      "QN": 4330,
      "RW": 4331,
      "SCo": 4332,
      "Yq": 4333,
      "head": 4334,
      "yA": 4335,
      "ĠRT": 4336,
      "1024": 4337,
      "Ġgoo": 4338,
      "alp": 4339,
      "oIihE": 4340,
      "tev": 4341,
      "true": 4342,
      "ups": 4343,
      "Ġcpio": 4344,
      "OTcpVDg": 4345,
      "IkBJ": 4346,
      "PUT": 4347,
      "Ojct": 4348,
      "XSJHLVU": 4349,
      "Qigm": 4350,
      "QihJ": 4351,
      "apaul": 4352,
      "asapaul": 4353,
      "Ġrename": 4354,
      "screen": 4355,
      "CAw": 4356,
      "hostapp": 4357,
      "webhostapp": 4358,
      "NTQr": 4359,
      "VlVQ": 4360,
      "VCOTcpVDg": 4361,
      "/\\.": 4362,
      "PlBIQCgiI": 4363,
      "LUUoJ": 4364,
      "wqKCJgRD": 4365,
      "ĠGTX": 4366,
      "QCoiMU": 4367,
      "JARDI": 4368,
      "Ġxmrig": 4369,
      "CnJtIC": 4370,
      "KCIxJDBULVspJy": 4371,
      "yZiA": 4372,
      "gjVEApIy": 4373,
      "ZFUjhVXVM": 4374,
      "ĠRTX": 4375,
      "Li": 4376,
      "RUE": 4377,
      "RlF": 4378,
      "\\*": 4379,
      "dU": 4380,
      "est": 4381,
      "eul": 4382,
      "nl": 4383,
      "pt": 4384,
      "tail": 4385,
      "uc": 4386,
      "zVS": 4387,
      "ĠBASH": 4388,
      "shopt": 4389,
      "NFQ": 4390,
      "ĠCorona": 4391,
      "news": 4392,
      "pJl": 4393,
      "VUOTct": 4394,
      "ffs": 4395,
      "oIiFFOyctSTlCYEg": 4396,
      "Xyoi": 4397,
      "ZdUi": 4398,
      "KjNMKigi": 4399,
      "RiVOOS": 4400,
      "dWLVU": 4401,
      "QqPFc": 4402,
      "MkQi": 4403,
      "CKFsiQmBA": 4404,
      "NllEKi": 4405,
      "lGRU": 4406,
      "newermt": 4407,
      "cyKEk": 4408,
      "NFJMSS": 4409,
      "OjZVRS": 4410,
      "oImBAPzBIQCgiI": 4411,
      "signal": 4412,
      "siQEhA": 4413,
      "ioyXEkoJ": 4414,
      "MjUpIzdWLVU": 4415,
      "dUKiJHLVU": 4416,
      "KiJYSioyXEkoJ": 4417,
      "KTNENTQr": 4418,
      "alpine": 4419,
      "euleros": 4420,
      "$/": 4421,
      "')": 4422,
      "232": 4423,
      "BOS": 4424,
      "NOD": 4425,
      "Qs": 4426,
      "RVI": 4427,
      "SPF": 4428,
      "To": 4429,
      "Tip": 4430,
      "Uyg": 4431,
      "WWUk": 4432,
      "XC": 4433,
      "Zb": 4434,
      "\\\\": 4435,
      "iYEQ": 4436,
      "mRU": 4437,
      "qHD": 4438,
      "rgb": 4439,
      "sminer": 4440,
      "utmp": 4441,
      "vMF": 4442,
      "wa": 4443,
      "xl": 4444,
      "yBe": 4445,
      "ĠJ": 4446,
      "Ġ188": 4447,
      "Ġtsh": 4448,
      "Ġtftpbins": 4449,
      "ers": 4450,
      "Ġab": 4451,
      "Ġsk": 4452,
      "9128": 4453,
      "QChC": 4454,
      "ĠcurlGHILIMEA": 4455,
      "KCJgRD": 4456,
      "Ġ\"./": 4457,
      "LED": 4458,
      "OFdg": 4459,
      "wgetGHILIMEA": 4460,
      "JkVOOT": 4461,
      "UDdW": 4462,
      "Ġln": 4463,
      "LUg": 4464,
      "ĠINTERNET": 4465,
      "JjVN": 4466,
      "giMVI": 4467,
      "NMKigiYEAoImBAKCJgQCgiYEAoIiFNPjJgRD": 4468,
      "ĠEeck": 4469,
      "ĠFRw": 4470,
      "Ġ3270720": 4471,
      "LDMp": 4472,
      "QmBIKSY": 4473,
      "xXNU": 4474,
      "yYERf": 4475,
      "ĠINSTALLATION": 4476,
      "KyIh": 4477,
      "JiVUOjct": 4478,
      "YXI": 4479,
      "JgRDdVTFE": 4480,
      "symbolCHECKING": 4481,
      "lowcpu": 4482,
      "benchmark": 4483,
      "KCdUQDk": 4484,
      "bXAvLlgxOS": 4485,
      "xGPEAvN": 4486,
      "NlFTOTIhWyJCYEA": 4487,
      "Ġwebhook": 4488,
      "ĠFAILED": 4489,
      "YqY": 4490,
      "VlVQPz": 4491,
      "Zbqr": 4492,
      "qHDZbqr": 4493,
      "rgbyy": 4494,
      "yBeR": 4495,
      "ĠEeckYqY": 4496,
      "DPTcp": 4497,
      "IP": 4498,
      "Kcm": 4499,
      "SM": 4500,
      "Vud": 4501,
      "copy": 4502,
      "help": 4503,
      "jgv": 4504,
      "mz": 4505,
      "mne": 4506,
      "nMVA": 4507,
      "oyIVsiQmBA": 4508,
      "zugqrc": 4509,
      "zCnJtIC": 4510,
      "ĠK": 4511,
      "tervi": 4512,
      "terpri": 4513,
      "Ġ1000": 4514,
      "altervi": 4515,
      "140": 4516,
      "Ġ'./": 4517,
      "enterpri": 4518,
      "oImBAKCJgQCgmVVkoIjF": 4519,
      "cla": 4520,
      "OTZY": 4521,
      "utils": 4522,
      "Kigi": 4523,
      "negp": 4524,
      "JATip": 4525,
      "QSEAoImBAKCJgQCgiYEAoImBAKCIh": 4526,
      "RVBQLC": 4527,
      "ViVO": 4528,
      "QmBPN": 4529,
      "VVkoJC": 4530,
      "nogroup": 4531,
      "whmne": 4532,
      "KCJgQCgiYEAoImBAKCJgQD": 4533,
      "XUI": 4534,
      "gKcm": 4535,
      "RjFF": 4536,
      "KCJgQCgiYEAoImBAKCIhXSJCYEA": 4537,
      "RtcAk": 4538,
      "EAvMmBCKS": 4539,
      "aagbry": 4540,
      "UjtCYEQ": 4541,
      "mktemp": 4542,
      "ilZPSY": 4543,
      "uWDEzLXVuaXgK": 4544,
      "GZzCnJtIC": 4545,
      "yZiAuWDEzLXVuaXgK": 4546,
      "VudGZzCnJtIC": 4547,
      "jgvmw": 4548,
      "altervista": 4549,
      "enterprise": 4550,
      "JATipC": 4551,
      "RtcAkKcm": 4552,
      "\":": 4553,
      "Hn": 4554,
      "IV": 4555,
      "Name": 4556,
      "cgroup": 4557,
      "lL": 4558,
      "oyI": 4559,
      "qjhrbn": 4560,
      "space": 4561,
      "wJi": 4562,
      "Ġ51": 4563,
      "xbIkBI": 4564,
      "EAu": 4565,
      "228": 4566,
      "Ġphp": 4567,
      "linu": 4568,
      "PUg": 4569,
      "mission": 4570,
      "oIjFNOTc": 4571,
      "KjxXNU": 4572,
      "SCkmOUg": 4573,
      "mUEAu": 4574,
      "7948": 4575,
      "USgi": 4576,
      "ĠECC": 4577,
      "whuf": 4578,
      "Ġcolumn": 4579,
      "Ġadd": 4580,
      "hDTCooImBAKCJgQCgiYEAoImBAKCIh": 4581,
      "angdrl": 4582,
      "JAQikm": 4583,
      "SChCMU": 4584,
      "hHRVQ": 4585,
      "Ġ2917948": 4586,
      "wJiVCOTcpVDg": 4587,
      "SCkmOUgqM": 4588,
      "ĠECCHI": 4589,
      "whufm": 4590,
      "!/": 4591,
      ");": 4592,
      "/[": 4593,
      ":$": 4594,
      "Ci": 4595,
      "FXz": 4596,
      "Jze": 4597,
      "Qit": 4598,
      "RZ": 4599,
      "Ug": 4600,
      "]{": 4601,
      "be": 4602,
      "briyav": 4603,
      "bjitar": 4604,
      "cut": 4605,
      "dc": 4606,
      "domain": 4607,
      "wr": 4608,
      "Ġtnx": 4609,
      "reg": 4610,
      "Ġspeedtest": 4611,
      "lob": 4612,
      "lha": 4613,
      "hocz": 4614,
      "Ġnod": 4615,
      "Ġyoy": 4616,
      "kmLUM": 4617,
      "htzu": 4618,
      "oiKEQ": 4619,
      "ViVT": 4620,
      "qIihE": 4621,
      "bak": 4622,
      "qzhkcq": 4623,
      "FAsIy": 4624,
      "JzeW": 4625,
      "Ġtnxl": 4626,
      "Ġnodups": 4627,
      "Ġyoyotftp": 4628,
      "$\"": 4629,
      "Ba": 4630,
      "Ve": 4631,
      "YgL": 4632,
      "crontab": 4633,
      "ii": 4634,
      "lJO": 4635,
      "oR": 4636,
      "pd": 4637,
      "pchgzx": 4638,
      "rjhjdc": 4639,
      "sas": 4640,
      "zm": 4641,
      "Ġurllib": 4642,
      "Ġtf": 4643,
      "18012": 4644,
      "Ġhts": 4645,
      "recomp": 4646,
      "Ġ179": 4647,
      "KCZVWS": 4648,
      "Ġpath": 4649,
      "project": 4650,
      "dig": 4651,
      "thffs": 4652,
      "ensas": 4653,
      "wnKUk": 4654,
      "Vyoi": 4655,
      "JyxL": 4656,
      "status": 4657,
      "YxRT": 4658,
      "warch": 4659,
      "Ġinput": 4660,
      "qzthffs": 4661,
      "yourwarch": 4662,
      "Ġ2918012": 4663,
      "watchyourwarch": 4664,
      "Ġ.*/\\": 4665,
      "UDxGRU": 4666,
      "NVXigiXT": 4667,
      "Ġhtsqzthffs": 4668,
      "recompensas": 4669,
      "TDo": 4670,
      "hu": 4671,
      "lwheqd": 4672,
      "vpidny": 4673,
      "Ġtwo": 4674,
      "ilk": 4675,
      "1337": 4676,
      "rom": 4677,
      "Ġsplit": 4678,
      "Ġ11": 4679,
      "liilk": 4680,
      "tehhit": 4681,
      "198": 4682,
      "enc": 4683,
      "Ġnasapaul": 4684,
      "*.*": 4685,
      "Ġ{}.": 4686,
      "UjdX": 4687,
      "JASEA": 4688,
      "VOE": 4689,
      "esk": 4690,
      "Tjki": 4691,
      "yIU": 4692,
      "ZZRT": 4693,
      "exp": 4694,
      "BfKS": 4695,
      "DIo": 4696,
      "BAKS": 4697,
      "ygjVV": 4698,
      "fuhbda": 4699,
      "BMKC": 4700,
      "VdOywl": 4701,
      "meminfo": 4702,
      "Ġasda": 4703,
      "Ġgoogle": 4704,
      "DPTcpPz": 4705,
      "JT": 4706,
      "KFsiQmBA": 4707,
      "Model": 4708,
      "MOjZZ": 4709,
      "PPE": 4710,
      "Ux": 4711,
      "amin": 4712,
      "dj": 4713,
      "kshuoy": 4714,
      "mit": 4715,
      "msi": 4716,
      "mJE": 4717,
      "ru": 4718,
      "sa": 4719,
      "spool": 4720,
      "vg": 4721,
      "ymgzot": 4722,
      "Ġlibstde": 4723,
      "139": 4724,
      "Ġri": 4725,
      "157": 4726,
      "KCYl": 4727,
      "KCMk": 4728,
      "Ġ./.": 4729,
      "Ġpa": 4730,
      "Ġbot": 4731,
      "ĠPA": 4732,
      "/*\"": 4733,
      "jFD": 4734,
      "UkBC": 4735,
      "RAXz": 4736,
      "RAXy": 4737,
      "hhki": 4738,
      "MSQt": 4739,
      "VVA": 4740,
      "Ġtrue": 4741,
      "QiFVO": 4742,
      "xmr": 4743,
      "JjVTPl": 4744,
      "oQkRbIkJgQCgiYEA": 4745,
      "18076": 4746,
      "/.*:\\": 4747,
      "Ġ2918076": 4748,
      "FPEc": 4749,
      "ĠMEXICOtftp": 4750,
      "VOEIh": 4751,
      "CB": 4752,
      "QUk": 4753,
      "Uih": 4754,
      "pM": 4755,
      "zsgxrw": 4756,
      "Ġ94": 4757,
      "Ġmail": 4758,
      "240": 4759,
      "219": 4760,
      "dis": 4761,
      "lhenc": 4762,
      "howo": 4763,
      "VMUD": 4764,
      "pJjFD": 4765,
      "Ġosh": 4766,
      "VkF": 4767,
      "hCUE": 4768,
      "hhtev": 4769,
      "MjI": 4770,
      "NihA": 4771,
      "slp": 4772,
      "gjVF": 4773,
      "LCNg": 4774,
      "ECHOarm": 4775,
      "cpRTg": 4776,
      "lxw": 4777,
      "YxQzhX": 4778,
      "ZRRTxXLEA": 4779,
      "UhMjI": 4780,
      "lhasi": 4781,
      "MSQtIz": 4782,
      "AuUEhA": 4783,
      "EOT": 4784,
      "GO": 4785,
      "JVM": 4786,
      "PL": 4787,
      "Ro": 4788,
      "SVM": 4789,
      "cur": 4790,
      "css": 4791,
      "hghvhp": 4792,
      "oz": 4793,
      "ules": 4794,
      "share": 4795,
      "inum": 4796,
      "KCJd": 4797,
      "tes": 4798,
      "mav": 4799,
      "KSE": 4800,
      "KSk": 4801,
      "KiIp": 4802,
      "Ġprintf": 4803,
      "oImBAKCJgQCgiYEAoImBAKCJgQCgiYEA": 4804,
      "RAOjY": 4805,
      "istftp": 4806,
      "NzlP": 4807,
      "UzMV": 4808,
      "KCIhUjk": 4809,
      "XyJCYEA": 4810,
      "WyJASEA": 4811,
      "gLW": 4812,
      "apps": 4813,
      "apache": 4814,
      "RFUzMV": 4815,
      "PzIh": 4816,
      "SCtC": 4817,
      "exists": 4818,
      "WEo": 4819,
      "NylH": 4820,
      "knIU": 4821,
      "Ġindex": 4822,
      "QlKSk": 4823,
      "Ġaddr": 4824,
      "KCJgQDs": 4825,
      "VwIC": 4826,
      "QCknIU": 4827,
      "RALzIh": 4828,
      "RlhAPT": 4829,
      "FPPEcxQS": 4830,
      "YlUjlSYF": 4831,
      "Ġstruts": 4832,
      "jZCA": 4833,
      "OjYtSy": 4834,
      "cjYF": 4835,
      "clamav": 4836,
      "pJjFDOF": 4837,
      "${": 4838,
      "/{": 4839,
      "221": 4840,
      "BAAA": 4841,
      "DB": 4842,
      "Nc": 4843,
      "Qh": 4844,
      "QSEBf": 4845,
      "RbIkJgQCgiYEA": 4846,
      "RhL": 4847,
      "gzip": 4848,
      "lGQ": 4849,
      "nel": 4850,
      "phhbam": 4851,
      "yJg": 4852,
      "yPF": 4853,
      "yMjU": 4854,
      "Ġ14": 4855,
      "Ġ128": 4856,
      "QCom": 4857,
      "oImBAKCIx": 4858,
      "llJOFZM": 4859,
      "proxy": 4860,
      "lhmsi": 4861,
      "env": 4862,
      "Ġ85": 4863,
      "Ġ];": 4864,
      "KiVR": 4865,
      "SEyMjU": 4866,
      "RAMC": 4867,
      "KCJgQCgiYEAoJ": 4868,
      "KEwoI": 4869,
      "pJilZPSY": 4870,
      "VDxAKS": 4871,
      "ZFQz": 4872,
      "Ojc": 4873,
      "oIiFNPj": 4874,
      "hCUEA": 4875,
      "Tjg": 4876,
      "RUypS": 4877,
      "JkVD": 4878,
      "QmBd": 4879,
      "LzBU": 4880,
      "RCxC": 4881,
      "wsI": 4882,
      "IhSTlC": 4883,
      "kjKE": 4884,
      "aggmtg": 4885,
      "JSxL": 4886,
      "EAAAADA": 4887,
      "JUXj": 4888,
      "POFZN": 4889,
      "SPSYl": 4890,
      "UtLzBU": 4891,
      "OVY": 4892,
      "krUkRAPlBIQCgiYEA": 4893,
      "KyJgQi": 4894,
      "ZQQC": 4895,
      "VUxQNz": 4896,
      "bIkJgQDs": 4897,
      "ODYxRD": 4898,
      "QABAAA": 4899,
      "zhmxt": 4900,
      "QTxHJVU": 4901,
      "MzUtJy": 4902,
      "DPTcpPzxWXUM": 4903,
      "Ġrichard": 4904,
      "KCJdPj": 4905,
      "RhLnRhci": 4906,
      "EAAAADAQABAAA": 4907,
      "EAAAADAQABAAABA": 4908,
      "'\\": 4909,
      "IO": 4910,
      "LPz": 4911,
      "NY": 4912,
      "PUU": 4913,
      "WUM": 4914,
      "bu": 4915,
      "cb": 4916,
      "fn": 4917,
      "gM": 4918,
      "gg": 4919,
      "here": 4920,
      "tM": 4921,
      "utput": 4922,
      "zq": 4923,
      "zvf": 4924,
      "Ġ23": 4925,
      "Ġcay": 4926,
      "NFEl": 4927,
      "245": 4928,
      "arc": 4929,
      "unix": 4930,
      "fix": 4931,
      "JgRDomXVM": 4932,
      "ctS": 4933,
      "OTck": 4934,
      "IkBE": 4935,
      "NULS": 4936,
      "sources": 4937,
      "NEg": 4938,
      "hdtc": 4939,
      "YlST": 4940,
      "ZZSThW": 4941,
      "IDE": 4942,
      "RiVJ": 4943,
      "qIj": 4944,
      "CAt": 4945,
      "ghju": 4946,
      "LUw": 4947,
      "YxUjg": 4948,
      "ĠInst": 4949,
      "EpM": 4950,
      "gjjz": 4951,
      "cwWyJCYEA": 4952,
      "Ġbasename": 4953,
      "LTRUPEA": 4954,
      "ĠGbot": 4955,
      "paste": 4956,
      "YyNFEl": 4957,
      "archive": 4958,
      "nrk": 4959,
      "KEIwUS": 4960,
      "YlUjw": 4961,
      "MihJLlBJ": 4962,
      "giMUI": 4963,
      "vMmBR": 4964,
      "NylWOTcp": 4965,
      "OyZdUzk": 4966,
      "grQkhJK": 4967,
      "NycsSyo": 4968,
      "klXTssJV": 4969,
      "KUcoI": 4970,
      "iBkb": 4971,
      "OzctRy": 4972,
      "TCgiKTA": 4973,
      "WEoqMlxJKCdMKigiYEA": 4974,
      "KEwoIihE": 4975,
      "VDxAKSchUjo": 4976,
      "RUypSQTw": 4977,
      "RiVJPi": 4978,
      "','": 4979,
      ")'": 4980,
      "131": 4981,
      ":'": 4982,
      "BPE": 4983,
      "IuUEhA": 4984,
      "IlBAKE": 4985,
      "JVQ": 4986,
      "LVA": 4987,
      "MOTct": 4988,
      "Qy": 4989,
      "RNz": 4990,
      "VVM": 4991,
      "VJO": 4992,
      "bl": 4993,
      "bz": 4994,
      "hz": 4995,
      "hlvl": 4996,
      "jc": 4997,
      "jy": 4998,
      "ni": 4999,
      "oVV": 5000,
      "owj": 5001,
      "rImBE": 5002,
      "tin": 5003,
      "uMTUw": 5004,
      "vbn": 5005,
      "ĠD": 5006,
      "Ġlocal": 5007,
      "Ġlist": 5008,
      "Ġrmdir": 5009,
      "155": 5010,
      "redirect": 5011,
      "8081": 5012,
      "Ġ193": 5013,
      "JgSD": 5014,
      "Ġpar": 5015,
      "Ġfu": 5016,
      "oImBAPEY": 5017,
      "plhq": 5018,
      "lhowj": 5019,
      "oImBAKCJgQCkm": 5020,
      "lBO": 5021,
      "VQUCwj": 5022,
      "NyRAKE": 5023,
      "KEg": 5024,
      "hWJVM": 5025,
      "255": 5026,
      "PEgo": 5027,
      "cxRS": 5028,
      "ODcs": 5029,
      "JEQC": 5030,
      "UEhAKCJgQCgiYEAoImBAKCJg": 5031,
      "QkBCKS": 5032,
      "Ġfiles": 5033,
      "LlBIQCgm": 5034,
      "xGJU": 5035,
      "NllMOTct": 5036,
      "csv": 5037,
      "gnore": 5038,
      "giMVM": 5039,
      "MzNULS": 5040,
      "dhv": 5041,
      "NzFdPl": 5042,
      "LlBIQCgiYEAoImBAKCJgQCgiYEAoIiF": 5043,
      "JgXSgk": 5044,
      "kja": 5045,
      "LCVU": 5046,
      "IoWyJCYEA": 5047,
      "pgkja": 5048,
      "JEQDtXKEA": 5049,
      "Ġloligang": 5050,
      "UmBdKC": 5051,
      "QCknIUE": 5052,
      "FKCNVXigiXT": 5053,
      "VUxRNz": 5054,
      "pJjlI": 5055,
      "JylBPVJARDI": 5056,
      "join": 5057,
      "NylOKCc": 5058,
      "UmBdLzJgUS": 5059,
      "UjFTOTZZRD": 5060,
      "KjJcSSgnTCo": 5061,
      "xugzlp": 5062,
      "IrImBCKS": 5063,
      "lmhkrc": 5064,
      "VFEKl": 5065,
      "KjVRUypSQTw": 5066,
      "pJlFJO": 5067,
      "ImBaNyNgUC": 5068,
      "KlJMWyJCYEA": 5069,
      "PlBIQCgiIVI": 5070,
      "RlhAPTZZTDk": 5071,
      "MihJLlBJXSJHLVU": 5072,
      "NylWOTcpUz": 5073,
      "oVVxALzNUQC": 5074,
      "plhqag": 5075,
      "'$": 5076,
      "175": 5077,
      "ARM": 5078,
      "HVwIC": 5079,
      "IVsiQmBA": 5080,
      "Jlh": 5081,
      "JFsiQmBA": 5082,
      "JFU": 5083,
      "MCAvdG": 5084,
      "OVQ": 5085,
      "OXz": 5086,
      "QIDAgL": 5087,
      "QKlJMWyJCYEA": 5088,
      "RJS": 5089,
      "SQEQ": 5090,
      "VwL": 5091,
      "YTM": 5092,
      "`\"": 5093,
      "bi": 5094,
      "cC": 5095,
      "qQkR": 5096,
      "sIDE": 5097,
      "tdCAx": 5098,
      "vRi": 5099,
      "wID": 5100,
      "yNT": 5101,
      "Ġ99": 5102,
      "Ġxvf": 5103,
      "Ġeth": 5104,
      "erlog": 5105,
      "xbIkJg": 5106,
      "usic": 5107,
      "xferlog": 5108,
      "Ġsaus": 5109,
      "784": 5110,
      "oIi": 5111,
      "itnh": 5112,
      "oImBAOjY": 5113,
      "UsSyo": 5114,
      "abc": 5115,
      "Ġ+%": 5116,
      "sock": 5117,
      "utdown": 5118,
      "UUQq": 5119,
      "ayAx": 5120,
      "VMgNiAtc": 5121,
      "NUM": 5122,
      "ĠLinux": 5123,
      "Ġoutput": 5124,
      "Ġyess": 5125,
      "OUZA": 5126,
      "SSg": 5127,
      "MEwoIjF": 5128,
      "MElTPTYoQD": 5129,
      "ICYmIG": 5130,
      "VkVO": 5131,
      "VkVGKCJARD": 5132,
      "YEQoVVxALzNUQC": 5133,
      "hCREA": 5134,
      "bIkJgQCgnLUU": 5135,
      "oIjFEOFYt": 5136,
      "QSEAoJ": 5137,
      "yIVQ": 5138,
      "KjNMKiJCYEA": 5139,
      "knKUU": 5140,
      "known": 5141,
      "MSU": 5142,
      "VVOjc": 5143,
      "TOi": 5144,
      "NTAgL": 5145,
      "wqKCJgQCgiYEAoImBAKCJgQCgi": 5146,
      "NzFJOzY": 5147,
      "Rzk": 5148,
      "RzbSA": 5149,
      "MkQiozTCo": 5150,
      "RjxALzdYQCt": 5151,
      "Ġ3270784": 5152,
      "IuMT": 5153,
      "EmMjR": 5154,
      "MmBEPC": 5155,
      "kgMCAvdG": 5156,
      "IyIC": 5157,
      "RyVVOjc": 5158,
      "WYgM": 5159,
      "VzFP": 5160,
      "JUw": 5161,
      "TDxW": 5162,
      "Ġhosts": 5163,
      "BRLE": 5164,
      "osho": 5165,
      "equ": 5166,
      "KzNZ": 5167,
      "MoQi": 5168,
      "VTtGLUE": 5169,
      "ctTzhWTV": 5170,
      "IkRbIkJgQCgiYEA": 5171,
      "VPEVdQj": 5172,
      "Ġfolder": 5173,
      "NjFEPEY": 5174,
      "JylBPVJAQj": 5175,
      "NkIC": 5176,
      "PCcpSTtHMEA": 5177,
      "bKSY": 5178,
      "UzxSYEQoVVxALzNUQC": 5179,
      "bIkBIQCgiYEA": 5180,
      "UygiMEM": 5181,
      "QCgnVCooImBAOTZRUzo": 5182,
      "NzVJPUZc": 5183,
      "qIlhK": 5184,
      "NIWjRW": 5185,
      "vaHVwIC": 5186,
      "oImBAKCJgQCgiYEAoImBAKCJgQDxWNU": 5187,
      "oIiFFOyctSTlCYEgpJi": 5188,
      "cyKEkuUEld": 5189,
      "ĠJosho": 5190,
      "Ġskid": 5191,
      "gLWkgMCAvdG": 5192,
      "CAtayAx": 5193,
      "QIDAgLWYgM": 5194,
      "SQEQyNSkjN": 5195,
      "VwLnR": 5196,
      "YTMudGFyLmd": 5197,
      "qQkRP": 5198,
      "sIDEgLWkgMCAvdG": 5199,
      "tdCAxNTAgL": 5200,
      "wIDIyIC": 5201,
      "yNTkt": 5202,
      "Ġsausages": 5203,
      "VMgNiAtcyA": 5204,
      "Ġyessir": 5205,
      "RzbSAtdCAxNTAgL": 5206,
      "EmMjRRJS": 5207,
      "CAtayAxIC": 5208,
      "QIDAgLWYgMCAtayAxIC": 5209,
      "RzbSAtdCAxNTAgLVMgNiAtcyA": 5210,
      "253": 5211,
      "BbIkJgQCgiYEA": 5212,
      "CQE": 5213,
      "DVEA": 5214,
      "Dir": 5215,
      "En": 5216,
      "FdPl": 5217,
      "HX": 5218,
      "IoQ": 5219,
      "PXz": 5220,
      "\\\"": 5221,
      "kZX": 5222,
      "lLS": 5223,
      "mF": 5224,
      "nNVM": 5225,
      "pST": 5226,
      "uM": 5227,
      "wNERFNjM": 5228,
      "ĠB": 5229,
      "Ġhtop": 5230,
      "217": 5231,
      "Ġ147": 5232,
      "giQE": 5233,
      "197": 5234,
      "Ġ\"^": 5235,
      "xtype": 5236,
      "5231": 5237,
      "oImBAKCJgQCgiYEAoImBAKCJgQCgi": 5238,
      "QDQ": 5239,
      "pJzVS": 5240,
      "NzVO": 5241,
      "MEwoI": 5242,
      "UjEpNEQtPzhXNVI": 5243,
      "VkV": 5244,
      "Ojdg": 5245,
      "access": 5246,
      "REk": 5247,
      "hCRFsiR": 5248,
      "Tjkm": 5249,
      "VyF": 5250,
      "hhgj": 5251,
      "SChE": 5252,
      "RUNf": 5253,
      "uUEhAKCIh": 5254,
      ".*'": 5255,
      "TCgl": 5256,
      "LUtf": 5257,
      "grp": 5258,
      "giMFI": 5259,
      "OFZB": 5260,
      "wjk": 5261,
      "fgwjk": 5262,
      "RkVY": 5263,
      "RkFdPl": 5264,
      "maillog": 5265,
      "KCNUQCkkMSMwV": 5266,
      "ript": 5267,
      "iQmBAKCJg": 5268,
      "oQkRbIkJg": 5269,
      "VTxGU": 5270,
      "lists": 5271,
      "KEIwUi": 5272,
      "VllBOzY": 5273,
      "dVKSE": 5274,
      "KCdUKiJCYEA": 5275,
      "RALzdYQCt": 5276,
      "SChCMFE": 5277,
      "PCwjJFU": 5278,
      "VPEVdUztWLUs": 5279,
      "wSEAoIiFFOyctSTlCYEgpJi": 5280,
      "FPPEcxQT": 5281,
      "Ġarch": 5282,
      "KCIxJDBULVspJjFDOF": 5283,
      "KigiYEAoImBAKCJgQCgiYEA": 5284,
      "VylUODJQQCkm": 5285,
      "oIyRbIkJgQCgnLUU": 5286,
      "cnLEsqJVFEKl": 5287,
      "LlBIQCgiIVM": 5288,
      "TOTcpVjk": 5289,
      "nVVsp": 5290,
      "QtKzdVKSE": 5291,
      "vMFR": 5292,
      "JiVUOjctVDo": 5293,
      "SCtCTF": 5294,
      "UtLzBUTF": 5295,
      "ZZSThWTE": 5296,
      "tinue": 5297,
      "NllMOTctUygiMEM": 5298,
      "LCVUQC": 5299,
      "pJzVSOy": 5300,
      "hhgjm": 5301,
      "KCIxJDBULVspJjFDOFctTzhWTV": 5302,
      "DS": 5303,
      "IPS": 5304,
      "Ke": 5305,
      "Me": 5306,
      "MlBAKS": 5307,
      "OUE": 5308,
      "Tw": 5309,
      "UOFdg": 5310,
      "Yvbn": 5311,
      "bF": 5312,
      "bCAyPjEm": 5313,
      "gram": 5314,
      "glob": 5315,
      "hPK": 5316,
      "iQ": 5317,
      "kpp": 5318,
      "ninfo": 5319,
      "qm": 5320,
      "rP": 5321,
      "salvi": 5322,
      "tU": 5323,
      "tac": 5324,
      "tntftp": 5325,
      "vM": 5326,
      "wu": 5327,
      "xSYF": 5328,
      "xjgvmw": 5329,
      "zagrrn": 5330,
      "shcle": 5331,
      "error": 5332,
      "Ġshutdown": 5333,
      "182": 5334,
      "132": 5335,
      "Ġany": 5336,
      "media": 5337,
      "229": 5338,
      "fist": 5339,
      "Ġgtop": 5340,
      "KCM": 5341,
      "alfist": 5342,
      "urlret": 5343,
      "cpVC": 5344,
      "product": 5345,
      "ĠCO": 5346,
      "Ġdata": 5347,
      "RDwn": 5348,
      "oImBAKCJgQCgiYEAoJlVZKCIx": 5349,
      "UkU": 5350,
      "UkBE": 5351,
      "geik": 5352,
      "Ġapache": 5353,
      "KCJgQCgiYEAoImBAXygiYEA": 5354,
      "PFcxQT": 5355,
      "analfist": 5356,
      "LEkuUEhA": 5357,
      "QTxGPEAvN": 5358,
      "VDOi": 5359,
      "Tzwi": 5360,
      "Tzwm": 5361,
      "YFIt": 5362,
      "ffX": 5363,
      "VTOV": 5364,
      "rieve": 5365,
      "ouh": 5366,
      "MmBIKS": 5367,
      "tXMUE": 5368,
      "tXLVQ": 5369,
      "Ġlmao": 5370,
      "QmBI": 5371,
      "RAKSchTzxHMUE": 5372,
      "RAKSQxIzBXTEQ": 5373,
      "oQlBA": 5374,
      "VjRALzdYQCt": 5375,
      "UyhCRFsiQmBA": 5376,
      "tWWU": 5377,
      "YEBfKCJgQCgi": 5378,
      "oImBAKCJgQCgiYEAoImBAKCIx": 5379,
      "kggeik": 5380,
      "Ġktntftp": 5381,
      "oImBAKCZFRigiQEQ": 5382,
      "VsbCAyPjEm": 5383,
      "ZZRDtS": 5384,
      "ogkpp": 5385,
      "PFZdQ": 5386,
      "oQkRbIkJgQCgiYEAoImBAKCJgQCgiYEA": 5387,
      "SPSJgXS": 5388,
      "Kybr": 5389,
      "[^.": 5390,
      "QODcx": 5391,
      "wzYFIt": 5392,
      "IGRvdGE": 5393,
      "LkNJ": 5394,
      "Ġ159": 5395,
      "oJkVGKCJARD": 5396,
      "steak": 5397,
      "ĠXffX": 5398,
      "KCJgQCgiIV": 5399,
      "KCJgQCgiIUk": 5400,
      "WEArVVk": 5401,
      "UiFbIkJg": 5402,
      "UOjYtQT": 5403,
      "PFZdQzpWNVQqJS": 5404,
      "NjFEPE": 5405,
      "mgzqd": 5406,
      "JOUJgSCkmLUE": 5407,
      "kernel": 5408,
      "Ġmore": 5409,
      "NFJMST": 5410,
      "yIoTCgi": 5411,
      "YDd": 5412,
      "JMSygm": 5413,
      "Ġyour": 5414,
      "VyxAKSItPygjVF": 5415,
      "oImBAPzBIQCgiIUU": 5416,
      "JjVNPC": 5417,
      "yZiAuWDEzLXVuaXgKcm": 5418,
      "JATipCRE": 5419,
      "','/": 5420,
      "cyKEkuUEldIkctVThCI": 5421,
      "kZXYvbn": 5422,
      "salviaw": 5423,
      "urlretrieve": 5424,
      "UkBEMjUpIzdWLVU": 5425,
      "analfisting": 5426,
      "VsbCAyPjEmCnNsZWVwID": 5427,
      "kZXYvbnVsbCAyPjEmCnNsZWVwID": 5428,
      "BL": 5429,
      "BSL": 5430,
      "DY": 5431,
      "IUE": 5432,
      "Mh": 5433,
      "YoI": 5434,
      "]\\": 5435,
      "]*'": 5436,
      "af": 5437,
      "filter": 5438,
      "gwhufm": 5439,
      "hm": 5440,
      "jshcle": 5441,
      "ms": 5442,
      "old": 5443,
      "qJC": 5444,
      "rx": 5445,
      "rQj": 5446,
      "rrgbyy": 5447,
      "tCKFsiQmBA": 5448,
      "ute": 5449,
      "xJg": 5450,
      "zz": 5451,
      "Ġ,": 5452,
      "Ġli": 5453,
      "Ġ76": 5454,
      "Ġnet": 5455,
      "Ġ//.": 5456,
      "2015": 5457,
      "Ġ127": 5458,
      "stree": 5459,
      "147": 5460,
      "Ġbad": 5461,
      "lsk": 5462,
      "ometh": 5463,
      "Ġstart": 5464,
      "doc": 5465,
      "Ġdb": 5466,
      "SES": 5467,
      "LEkoJ": 5468,
      "wqOzdEQCkm": 5469,
      "Xzoi": 5470,
      "Ġ\"$@": 5471,
      "oIjFQPEZFTj": 5472,
      "VylD": 5473,
      "BfPEZFTj": 5474,
      "KCdM": 5475,
      "QCgnPUg": 5476,
      "NjE": 5477,
      "VjVM": 5478,
      "wqKCJgQCgiYEAoImBE": 5479,
      "VWUM": 5480,
      "ervers": 5481,
      "RfN": 5482,
      "agdhv": 5483,
      "oImBAKCJgQCgiYEAoIiFd": 5484,
      "CKyIo": 5485,
      "NlFFKC": 5486,
      "hCRFsiQmBAKCJgQD": 5487,
      "ĠâĢĺ": 5488,
      "KCJgQCgiYEAoImBAKCIhRTsnLUk": 5489,
      "VzVSOEdFVDk": 5490,
      "Ġ\".*\"": 5491,
      "public": 5492,
      "YsQC": 5493,
      "pJyFSOjZZVDsi": 5494,
      "KyIhMDk": 5495,
      "LScoIjFQPEZFTj": 5496,
      "bIkJgQCgiIUk": 5497,
      "QihJKCdMKigiYEA": 5498,
      "RVBQLCMp": 5499,
      "KjxXNUI": 5500,
      "mUEAuRVBQLCMp": 5501,
      "Ġpaste": 5502,
      "NyRAKEZd": 5503,
      "TDxWRUYoIkBE": 5504,
      "equiv": 5505,
      "NIWjRWXUM": 5506,
      "IPScx": 5507,
      "TzwmNU": 5508,
      "BSLk": 5509,
      "xJgp": 5510,
      "omething": 5511,
      "VylDOTZY": 5512,
      "NlFFKCJA": 5513,
      "([": 5514,
      ".+": 5515,
      "GVl": 5516,
      "Is": 5517,
      "MSA": 5518,
      "MiA": 5519,
      "MgNiAtc": 5520,
      "PPSY": 5521,
      "URL": 5522,
      "Wsg": 5523,
      "by": 5524,
      "cCA": 5525,
      "cCAvdG": 5526,
      "eHQ": 5527,
      "from": 5528,
      "ghh": 5529,
      "gMj": 5530,
      "gMT": 5531,
      "mx": 5532,
      "mdir": 5533,
      "mIDAgL": 5534,
      "pIDAgL": 5535,
      "sj": 5536,
      "tty": 5537,
      "uuid": 5538,
      "Ġ22": 5539,
      "Ġcron": 5540,
      "159": 5541,
      "Ġss": 5542,
      "7884": 5543,
      "rahocz": 5544,
      "TIDY": 5545,
      "pyhtzu": 5546,
      "RFMjB": 5547,
      "ViVS": 5548,
      "node": 5549,
      "GwgMj": 5550,
      "FPD": 5551,
      "âĢĻ": 5552,
      "VzFB": 5553,
      "NllEPEYl": 5554,
      "COMMANDS": 5555,
      "gLXQg": 5556,
      "gLXMgNiAtc": 5557,
      "CAxIC": 5558,
      "0000000000000000": 5559,
      "bSAmJiB": 5560,
      "tbCAxIC": 5561,
      "ctRTtGMVI": 5562,
      "CAyMiA": 5563,
      "--------": 5564,
      "Ġ2917884": 5565,
      "MTUwIC": 5566,
      "bmMvYy": 5567,
      "Ġaxistftp": 5568,
      "zbGVl": 5569,
      "dropper": 5570,
      "CAwIC": 5571,
      "tUCAwIC": 5572,
      "MSAtbCAxIC": 5573,
      "WsgMSAtbCAxIC": 5574,
      "eHQgMT": 5575,
      "mIDAgLWsgMSAtbCAxIC": 5576,
      "TIDYgLXMgNiAtc": 5577,
      "RFMjBVX": 5578,
      "gLXQgMTUwIC": 5579,
      "CAyMiAtUCAwIC": 5580,
      "zbGVlcCA": 5581,
      "TIDYgLXMgNiAtcCAyMiAtUCAwIC": 5582,
      ";\"": 5583,
      "PWD": 5584,
      "RVM": 5585,
      "Test": 5586,
      "jwhmne": 5587,
      "qv": 5588,
      "rki": 5589,
      "tree": 5590,
      "uliilk": 5591,
      "}.": 5592,
      "Ġdos": 5593,
      "inet": 5594,
      "modules": 5595,
      "ons": 5596,
      "ary": 5597,
      "0848": 5598,
      "Ġgroup": 5599,
      "ade": 5600,
      "Ġ''": 5601,
      "hooi": 5602,
      "Ġninfo": 5603,
      "Ġdd": 5604,
      "/*/*": 5605,
      "Ġ20000": 5606,
      "VQO": 5607,
      "acce": 5608,
      "RELT": 5609,
      "qMk": 5610,
      "Ġtext": 5611,
      "export": 5612,
      "NllU": 5613,
      "Ġ3270848": 5614,
      "hqzm": 5615,
      "kjhooi": 5616,
      "udp": 5617,
      "tftpboot": 5618,
      "hehi": 5619,
      "=\"$(": 5620,
      "RzFM": 5621,
      "wzt": 5622,
      "FUPS": 5623,
      "siYEI": 5624,
      "Ġcoreutils": 5625,
      "JgTzd": 5626,
      "esktop": 5627,
      "NllEPEYlVyoi": 5628,
      "(\"": 5629,
      ",]": 5630,
      "CP": 5631,
      "Ij": 5632,
      "IUU": 5633,
      "NK": 5634,
      "Possible": 5635,
      "SHE": 5636,
      "SSES": 5637,
      "ZVU": 5638,
      "\\/": 5639,
      "amd": 5640,
      "cdir": 5641,
      "dp": 5642,
      "dhh": 5643,
      "ehh": 5644,
      "gbins": 5645,
      "kv": 5646,
      "xp": 5647,
      "Ġlinux": 5648,
      "inline": 5649,
      "ĠwgetGHILIMEA": 5650,
      "cps": 5651,
      "Ġbzip": 5652,
      "Ġ\\\"": 5653,
      "Ġ\":": 5654,
      "ĠCyBeR": 5655,
      "enable": 5656,
      "ĠPossible": 5657,
      "Ġ+++": 5658,
      "Ġnot": 5659,
      "ohpi": 5660,
      "VITY": 5661,
      "VUOT": 5662,
      "mdGHILIMEA": 5663,
      "TIVITY": 5664,
      "XSgj": 5665,
      "TFmips": 5666,
      "CESS": 5667,
      ".*]": 5668,
      "TCgj": 5669,
      "gnNU": 5670,
      "Ġdidn": 5671,
      "alled": 5672,
      "Ġprocps": 5673,
      "ious": 5674,
      "ĠPROCESSES": 5675,
      "ĠunzipGHILIMEA": 5676,
      "symbolSE": 5677,
      "gmNUw": 5678,
      "Ġ\"*\"": 5679,
      "Ġsyst": 5680,
      "ĠPIDsGHILIMEA": 5681,
      "ktdW": 5682,
      "symbolCPU": 5683,
      "icmp": 5684,
      "YMTktdW": 5685,
      "ĠCONNECTIVITY": 5686,
      "RALzJgRD": 5687,
      "secur": 5688,
      "uwhhki": 5689,
      "hVXEAvM": 5690,
      "Ġsuspicious": 5691,
      "Application": 5692,
      "Ġworker": 5693,
      "9128169": 5694,
      "ĠFAILEDGHILIMEA": 5695,
      "ĠInstalled": 5696,
      "ĠCOMMANDS": 5697,
      "Ġ\"$@\"": 5698,
      "ohpie": 5699,
      "ĠdidnGHILIMEA": 5700,
      "4000": 5701,
      "Al": 5702,
      "Gho": 5703,
      "IUk": 5704,
      "JR": 5705,
      "LDIo": 5706,
      "Mm": 5707,
      "MFI": 5708,
      "NjV": 5709,
      "QV": 5710,
      "RPT": 5711,
      "Tp": 5712,
      "ee": 5713,
      "iG": 5714,
      "ij": 5715,
      "iRy": 5716,
      "jk": 5717,
      "jmh": 5718,
      "jCm": 5719,
      "jlhenc": 5720,
      "nj": 5721,
      "pk": 5722,
      "pstree": 5723,
      "qF": 5724,
      "qh": 5725,
      "rhhtev": 5726,
      "uB": 5727,
      "uI": 5728,
      "zlhasi": 5729,
      "Ġ66": 5730,
      "ina": 5731,
      "ermission": 5732,
      "bind": 5733,
      "etho": 5734,
      "Ġwk": 5735,
      "Ġsrc": 5736,
      "chPz": 5737,
      "Ġ\\+": 5738,
      "itect": 5739,
      "Ġmca": 5740,
      "netik": 5741,
      "tran": 5742,
      "Ġxzvf": 5743,
      "Ġthe": 5744,
      "PFJMS": 5745,
      "OUR": 5746,
      "vrx": 5747,
      "VOPS": 5748,
      "REApJy": 5749,
      "OSYt": 5750,
      "MSk": 5751,
      "hbdb": 5752,
      "KTRELT": 5753,
      "rectory": 5754,
      "bernetik": 5755,
      "systma": 5756,
      "wholename": 5757,
      "yhvrx": 5758,
      "trol": 5759,
      "priv": 5760,
      "OFYlUzk": 5761,
      "ĠâĢľ*.": 5762,
      "bFk": 5763,
      "ouhlxw": 5764,
      "$//'": 5765,
      "(.*": 5766,
      "CNC": 5767,
      "GYg": 5768,
      "JTU": 5769,
      "JFPD": 5770,
      "OO": 5771,
      "QK": 5772,
      "RP": 5773,
      "So": 5774,
      "cG": 5775,
      "hld": 5776,
      "jj": 5777,
      "lX": 5778,
      "lst": 5779,
      "sU": 5780,
      "tA": 5781,
      "woJ": 5782,
      "Ġ77": 5783,
      "inus": 5784,
      "Ġ198": 5785,
      "789": 5786,
      "KCNJ": 5787,
      "Ġpo": 5788,
      "ipv": 5789,
      "STCP": 5790,
      "/*.": 5791,
      "ndhowo": 5792,
      "YEI": 5793,
      "geGYg": 5794,
      "epp": 5795,
      "PFJgRC": 5796,
      "UjdW": 5797,
      "MSYK": 5798,
      "Ġlu": 5799,
      "two": 5800,
      "QCgmNUw": 5801,
      "dhuz": 5802,
      "VWz": 5803,
      "RkFUPS": 5804,
      "RkVOPS": 5805,
      "myfiles": 5806,
      "oQkRbIk": 5807,
      "ĠHi": 5808,
      "ZXAg": 5809,
      "ault": 5810,
      "uUEgq": 5811,
      "Arch": 5812,
      "subdomain": 5813,
      "PCcpSTtHMU": 5814,
      "bhepp": 5815,
      "VlFP": 5816,
      "mages": 5817,
      "ipsLinuxTF": 5818,
      "xlZXAg": 5819,
      "YXIgeGYg": 5820,
      "UjdXLU": 5821,
      "SHELL": 5822,
      "itecture": 5823,
      "PFJMSD": 5824,
      "PFJgRChVXEAvM": 5825,
      "dhuza": 5826,
      "YXIgeGYgZG": 5827,
      "Es": 5828,
      "KUM": 5829,
      "LV": 5830,
      "Qu": 5831,
      "RST": 5832,
      "SY": 5833,
      "SYEQ": 5834,
      "UQ": 5835,
      "ZH": 5836,
      "dyg": 5837,
      "eg": 5838,
      "hI": 5839,
      "hU": 5840,
      "iS": 5841,
      "mlhmsi": 5842,
      "ob": 5843,
      "open": 5844,
      "pU": 5845,
      "sQ": 5846,
      "total": 5847,
      "wK": 5848,
      "xIKS": 5849,
      "Ġ28": 5850,
      "ong": 5851,
      "atrin": 5852,
      "Ġba": 5853,
      "160": 5854,
      "ted": 5855,
      "oImBAKCJgQCgnVCo": 5856,
      "Ġstring": 5857,
      "ctRTx": 5858,
      "earch": 5859,
      "cker": 5860,
      "RTz": 5861,
      "PFcw": 5862,
      "PSYl": 5863,
      "PEg": 5864,
      "Xzg": 5865,
      "XSgmNUw": 5866,
      "downloader": 5867,
      "UyE": 5868,
      "QjQlKSk": 5869,
      "Rjoi": 5870,
      "KiIxKTRELT": 5871,
      "Ġhome": 5872,
      "Ġ^[^": 5873,
      "ctTzhW": 5874,
      "format": 5875,
      "sfer": 5876,
      "IlRe": 5877,
      "Ġ700": 5878,
      "oIiFdIkJgQCgmNUw": 5879,
      "PzBJUz": 5880,
      "VzVCKC": 5881,
      "RALDNMKigiYEA": 5882,
      "ViVTOT": 5883,
      "RFUzMVJgRD": 5884,
      "Ghoss": 5885,
      "transfer": 5886,
      "VlFPPFY": 5887,
      "dygx": 5888,
      "atrina": 5889,
      "/%": 5890,
      "BPEY": 5891,
      "BNL": 5892,
      "EUy": 5893,
      "KZ": 5894,
      "MY": 5895,
      "Nlh": 5896,
      "NSI": 5897,
      "PG": 5898,
      "QUE": 5899,
      "Rhb": 5900,
      "SOT": 5901,
      "UWS": 5902,
      "fP": 5903,
      "gcc": 5904,
      "igh": 5905,
      "kpgkja": 5906,
      "lW": 5907,
      "mch": 5908,
      "mNE": 5909,
      "rM": 5910,
      "tu": 5911,
      "uo": 5912,
      "vnc": 5913,
      "Ġtac": 5914,
      "Ġau": 5915,
      "Ġaaa": 5916,
      "Ġhelp": 5917,
      "393": 5918,
      "std": 5919,
      "lsg": 5920,
      "max": 5921,
      "nuhlvl": 5922,
      "then": 5923,
      "oImBAKCJgQCgiYEAoJ": 5924,
      "pJEUy": 5925,
      "YtRS": 5926,
      "OSc": 5927,
      "OSYx": 5928,
      "LlBIQCgi": 5929,
      "hhq": 5930,
      "Oyc": 5931,
      "TTwn": 5932,
      "TTxW": 5933,
      ".*\"": 5934,
      "RCKj": 5935,
      "luaX": 5936,
      "ivyh": 5937,
      "hkql": 5938,
      "gvLn": 5939,
      "IoRD": 5940,
      "hehb": 5941,
      "Ġ'/^": 5942,
      "YwSyo": 5943,
      "Ġ500": 5944,
      "xALzJg": 5945,
      "lUTM": 5946,
      "zhlsg": 5947,
      "Ġqehdbp": 5948,
      "skype": 5949,
      "hvqv": 5950,
      "VjVUKyJg": 5951,
      "NlMl": 5952,
      "EAvMmBC": 5953,
      "LXVuaXgvLn": 5954,
      "Ġvim": 5955,
      "TOTZZRDxGJVcqIj": 5956,
      "weghju": 5957,
      "PSZFTTkyYF": 5958,
      "QSEAoImBAKCJgQCgiYEAoImBAKCZVWS": 5959,
      "iUEAoR": 5960,
      "Ġsigsba": 5961,
      "JBPDRST": 5962,
      "pJDEjMFdMRDlGQ": 5963,
      "wqKCJgQCgiYEQ": 5964,
      "VeKCJdPj": 5965,
      "ĠGbottftp": 5966,
      "RzFMKCNJ": 5967,
      "dhhnu": 5968,
      "JFPDxSTE": 5969,
      "Architecture": 5970,
      "Ġ28393": 5971,
      "RFUzMVJgRDwnKUk": 5972,
      "pJEUyMF": 5973,
      "luaXRhb": 5974,
      "lUTMqUk": 5975,
      "LXVuaXgvLnJzeW": 5976,
      "iUEAoRSEyMjU": 5977,
      "JBPDRSTEk": 5978,
      "pJDEjMFdMRDlGQV": 5979,
      "){": 5980,
      "RygjVV": 5981,
      "SU": 5982,
      "SREA": 5983,
      "Tio": 5984,
      "UY": 5985,
      "VAL": 5986,
      "VEAvMmBE": 5987,
      "bXyJCYEA": 5988,
      "done": 5989,
      "ey": 5990,
      "edi": 5991,
      "fO": 5992,
      "hlo": 5993,
      "ignore": 5994,
      "mbox": 5995,
      "nlhowj": 5996,
      "po": 5997,
      "uwi": 5998,
      "wU": 5999,
      "wfgwjk": 6000,
      "xSI": 6001,
      "yil": 6002,
      "Ġme": 6003,
      "Ġ0755": 6004,
      "ilo": 6005,
      "Ġaa": 6006,
      "arp": 6007,
      "Ġsub": 6008,
      "leG": 6009,
      "cpPz": 6010,
      "QCklXTssJV": 6011,
      "Ġph": 6012,
      "Ġ\"`": 6013,
      "sysctl": 6014,
      "clLE": 6015,
      "clVT": 6016,
      "VQS": 6017,
      "NUQ": 6018,
      "pJllJOFZM": 6019,
      "SStSREA": 6020,
      "QTo": 6021,
      "wqPzBJUz": 6022,
      "mdh": 6023,
      "PUZF": 6024,
      "JEIqM": 6025,
      "WyJCYEBf": 6026,
      "esx": 6027,
      "aphdtc": 6028,
      "QkBE": 6029,
      "asa": 6030,
      "KCIxUDtXKVQ": 6031,
      "yIWA": 6032,
      "KjJEQD": 6033,
      "hhf": 6034,
      "JiVM": 6035,
      "JiRA": 6036,
      "PTZZ": 6037,
      "PTZZTDk": 6038,
      "xGN": 6039,
      "SCkkRTIwVV": 6040,
      "lah": 6041,
      "lahf": 6042,
      "TTky": 6043,
      "MSQ": 6044,
      "JjVO": 6045,
      "RzlJ": 6046,
      "LDVU": 6047,
      "kbhlo": 6048,
      "IoTC": 6049,
      "oIjB": 6050,
      "CKyJg": 6051,
      "XUQ": 6052,
      "Ġoracle": 6053,
      "BQLE": 6054,
      "Ġscript": 6055,
      "cpVDgyUEA": 6056,
      "VUUoI": 6057,
      "rwx": 6058,
      "kzRD": 6059,
      "JjRA": 6060,
      "XEIr": 6061,
      "MjRZ": 6062,
      "RiVXKiIp": 6063,
      "RiVXKiIxKTRELT": 6064,
      "pJyFSOjZZVDsiYF": 6065,
      "JBPDki": 6066,
      "QTkmMVI": 6067,
      "BOKkJETyoyIVsiQmBA": 6068,
      "OzchXS": 6069,
      "oQkRAOjY": 6070,
      "QComVVkoIjF": 6071,
      "MzUtJygiMVA": 6072,
      "EAAAADAQABAAABAQC": 6073,
      "LTRUPEApJyFSOjZZVDsiYF": 6074,
      "oImBAKCJgQCgiYEAoIiFdIkJgQCgiYEA": 6075,
      "accept": 6076,
      "hldns": 6077,
      "RkFUPSchPz": 6078,
      "RkVOPSZQQC": 6079,
      "ViVTOTJgXT": 6080,
      "VjVUKyJgQjQlKSk": 6081,
      "NlMlPS": 6082,
      "RzFMKCNJPCwjYF": 6083,
      "lahfqq": 6084,
      "kbhloq": 6085,
      "\"`": 6086,
      "'|": 6087,
      "*-": 6088,
      "CY": 6089,
      "DTCo": 6090,
      "Desktop": 6091,
      "Fo": 6092,
      "KVQ": 6093,
      "NVU": 6094,
      "OR": 6095,
      "Qo": 6096,
      "SO": 6097,
      "Wn": 6098,
      "WGET": 6099,
      "YS": 6100,
      "YKybr": 6101,
      "ZRV": 6102,
      "bO": 6103,
      "iKEQ": 6104,
      "jg": 6105,
      "mRUM": 6106,
      "nO": 6107,
      "oxc": 6108,
      "rpm": 6109,
      "tt": 6110,
      "tand": 6111,
      "vRy": 6112,
      "yQE": 6113,
      "zmgzqd": 6114,
      "Ġon": 6115,
      "Ġ91": 6116,
      "Ġkey": 6117,
      "ero": 6118,
      "onVVs": 6119,
      "ontrol": 6120,
      "Ġall": 6121,
      "Ġaut": 6122,
      "151": 6123,
      "continue": 6124,
      "KCZFRi": 6125,
      "/../": 6126,
      "JgXV": 6127,
      "limit": 6128,
      "end": 6129,
      "oImBAKCJgQDo": 6130,
      "Ġ+=": 6131,
      "docs": 6132,
      "VMUT": 6133,
      "Ġyou": 6134,
      "wqPzBI": 6135,
      "TzxC": 6136,
      "ZFTi": 6137,
      "oIiFGO": 6138,
      "midecode": 6139,
      "Qzom": 6140,
      "MmBL": 6141,
      "Wyl": 6142,
      "PzxWNU": 6143,
      "REApJi": 6144,
      "LlBIQF": 6145,
      "RVY": 6146,
      "exi": 6147,
      "RURS": 6148,
      "uUEhAXygiYEA": 6149,
      "mNVE": 6150,
      "RiVE": 6151,
      "xWNVI": 6152,
      "tGRUM": 6153,
      "NllF": 6154,
      "grug": 6155,
      "RAKSVdOywl": 6156,
      "WUc": 6157,
      "yobins": 6158,
      "yozTCo": 6159,
      "yYEQxJC": 6160,
      "YkQC": 6161,
      "Qjk": 6162,
      "hcse": 6163,
      "RjonVVs": 6164,
      "MFsiQmBA": 6165,
      "kjJE": 6166,
      "NylT": 6167,
      "wqKCJgQF": 6168,
      "wqKCJgQCgiYEBf": 6169,
      "oIkBOKkJETyoyIVsiQmBA": 6170,
      "oImBAKCJgQDs": 6171,
      "TDtW": 6172,
      "oImBAKCJgQCgiIVM": 6173,
      "oImBAKCJgQCgiIVI": 6174,
      "berg": 6175,
      "smsd": 6176,
      "xEPFY": 6177,
      "MmBdKC": 6178,
      "tmux": 6179,
      "JcSSgnTCo": 6180,
      "EzM": 6181,
      "UODZQ": 6182,
      "JEAo": 6183,
      "LVMoIjB": 6184,
      "RlhA": 6185,
      "TjknVVs": 6186,
      "MEgqPFc": 6187,
      "OjZVRT": 6188,
      "jPlIxRjonVVs": 6189,
      "nstall": 6190,
      "xuexi": 6191,
      "venoxc": 6192,
      "iQElTPTYoQD": 6193,
      "zVEAs": 6194,
      "IpIyRCKjNMKigiYEA": 6195,
      "UihJLlBIQCgiYEA": 6196,
      "vyitnh": 6197,
      "oyIUk": 6198,
      "VMUDc": 6199,
      "PzIhRTsn": 6200,
      "cjYFAs": 6201,
      "IlBAKEUhMjI": 6202,
      "PCcpSTtHMUwoI": 6203,
      "hhqur": 6204,
      "pJEUyMFVdQz": 6205,
      "xGNUE": 6206,
      "LDVUQiozTCo": 6207,
      "tandberg": 6208,
      "LVMoIjBDN": 6209,
      "venoxcontrol": 6210,
      ",%": 6211,
      "528": 6212,
      ":-": 6213,
      "=*.": 6214,
      "An": 6215,
      "BT": 6216,
      "BXz": 6217,
      "CV": 6218,
      "CQTw": 6219,
      "EyYEQ": 6220,
      "Jb": 6221,
      "JlB": 6222,
      "JPE": 6223,
      "KH": 6224,
      "KVd": 6225,
      "KFA": 6226,
      "NO": 6227,
      "NlB": 6228,
      "Ril": 6229,
      "RbIkBIQCgiYEA": 6230,
      "SZ": 6231,
      "SMVM": 6232,
      "TXz": 6233,
      "XEA": 6234,
      "[.": 6235,
      "aG": 6236,
      "dat": 6237,
      "ddos": 6238,
      "gG": 6239,
      "hg": 6240,
      "ks": 6241,
      "kagdhv": 6242,
      "lxcf": 6243,
      "lUUQq": 6244,
      "mUE": 6245,
      "ome": 6246,
      "ozhmxt": 6247,
      "tVU": 6248,
      "tfc": 6249,
      "uco": 6250,
      "uhhgjm": 6251,
      "xle": 6252,
      "yv": 6253,
      "yTE": 6254,
      "zKl": 6255,
      "Ġ54": 6256,
      "ĠNR": 6257,
      "Ġcy": 6258,
      "Ġcgroup": 6259,
      "Ġrun": 6260,
      "Ġwho": 6261,
      "916": 6262,
      "level": 6263,
      "stuff": 6264,
      "Ġgti": 6265,
      "78916": 6266,
      "Ġunknown": 6267,
      "def": 6268,
      "Ġfuse": 6269,
      "oImBAXy": 6270,
      "wkgjjz": 6271,
      "plug": 6272,
      "fold": 6273,
      "oImBAKCJgQCgnLUU": 6274,
      "SThWT": 6275,
      "Ġnl": 6276,
      "YEY": 6277,
      "lBAN": 6278,
      "lines": 6279,
      "Ġ3278916": 6280,
      "tion": 6281,
      "ohaut": 6282,
      "OUcxSTs": 6283,
      "LEIqM": 6284,
      "TIyNTkt": 6285,
      "VEzKl": 6286,
      "KCIhXSJCYEA": 6287,
      "coQComVVkoIjF": 6288,
      "Ġuseradd": 6289,
      "ouRS": 6290,
      "ZdST": 6291,
      "MUY": 6292,
      "MUVd": 6293,
      "QkE": 6294,
      "bIkJgQCgiYEBf": 6295,
      "QSEAoJylFPSc": 6296,
      "PCZF": 6297,
      "VyhA": 6298,
      "LlBIQCgiYEBf": 6299,
      "RVg": 6300,
      "Ġrestart": 6301,
      "OyJg": 6302,
      "OyZFTj": 6303,
      "}')": 6304,
      "grade": 6305,
      "RAKSchQThWXVQ": 6306,
      "RAKSYlUjw": 6307,
      "JgRDwmJUM": 6308,
      "JlxA": 6309,
      "kiQEQ": 6310,
      "JjVM": 6311,
      "giMUE": 6312,
      "mJU": 6313,
      "KCNUQCkm": 6314,
      "VjRAPlBIQCgiYEA": 6315,
      "NzFF": 6316,
      "Ġ32702": 6317,
      "QqKCJgQCgiYEAoImBAKCJg": 6318,
      "Ġ3270528": 6319,
      "HOUk": 6320,
      "RjVD": 6321,
      "sqNVFTKl": 6322,
      "gjVEAo": 6323,
      "LzJgRC": 6324,
      "DODcp": 6325,
      "JzVT": 6326,
      "JOUJgSD": 6327,
      "STlCYE": 6328,
      "YwQD": 6329,
      "YwSD": 6330,
      "ZVWV": 6331,
      "RzFJOzY": 6332,
      "regextype": 6333,
      "iQmBAKCJgQCgiYEA": 6334,
      "wyKEkuUEhA": 6335,
      "xEOU": 6336,
      "xEOSYt": 6337,
      "IrI": 6338,
      "ĠâĢĵ": 6339,
      "oJjVR": 6340,
      "ZVRS": 6341,
      "kzO": 6342,
      "QCknIVI": 6343,
      "Ġ...": 6344,
      "NyNgUS": 6345,
      "Ġ3271560": 6346,
      "hfKS": 6347,
      "RDhWLVM": 6348,
      "vMmBQ": 6349,
      "STtHMEg": 6350,
      "KCIpMD": 6351,
      "ctRTtGMVM": 6352,
      "Ġmysq": 6353,
      "IiEw": 6354,
      "Ġsysfs": 6355,
      "AgICAgICAg": 6356,
      "IpIyhC": 6357,
      "vol": 6358,
      "LOTcwTCgiKTA": 6359,
      "wqKCJgQDxGNVQ": 6360,
      "VBOSYx": 6361,
      "oImBAKCJgQCgiYEQxJC": 6362,
      "cnLEsqJVEzKl": 6363,
      "oQjBRKEJQQChC": 6364,
      "wzTCooImBA": 6365,
      "KyIhMD": 6366,
      "ihMKE": 6367,
      "pJkVBOSYx": 6368,
      "BOKkJFPDxSTE": 6369,
      "hFITIyNTkt": 6370,
      "IkBJUz": 6371,
      "KTNENTQrIi": 6372,
      "JSxLKjJc": 6373,
      "OTckQC": 6374,
      "OzctRysiYF": 6375,
      "PEgoRF": 6376,
      "JEQDtXKEApJi": 6377,
      "MSUoIjE": 6378,
      "qQkRPKjIhWyJCYEA": 6379,
      "inusbot": 6380,
      "PFJMSDcmME": 6381,
      "BQLENI": 6382,
      "kzRDU": 6383,
      "JBPDkiTE": 6384,
      "PzIhRTsnLUUoJ": 6385,
      "lxcfs": 6386,
      "ucoz": 6387,
      "plugin": 6388,
      "MUVdKTNENTQrIi": 6389,
      "IiEwMUVdKTNENTQrIi": 6390,
      "oQjBRKEJQQChCMFI": 6391,
      "\")\"": 6392,
      "AE": 6393,
      "EY": 6394,
      "GIN": 6395,
      "HR": 6396,
      "JI": 6397,
      "LG": 6398,
      "MjF": 6399,
      "MipsLinuxTF": 6400,
      "OOTc": 6401,
      "Permission": 6402,
      "QLE": 6403,
      "QPE": 6404,
      "RbIk": 6405,
      "TK": 6406,
      "TPS": 6407,
      "VVP": 6408,
      "VWU": 6409,
      "WVI": 6410,
      "Wzo": 6411,
      "\\}": 6412,
      "aq": 6413,
      "dy": 6414,
      "dpkg": 6415,
      "fN": 6416,
      "gra": 6417,
      "iregex": 6418,
      "je": 6419,
      "kMT": 6420,
      "lilo": 6421,
      "lOOTc": 6422,
      "mYgL": 6423,
      "nohup": 6424,
      "pV": 6425,
      "qNVFTKl": 6426,
      "rU": 6427,
      "rror": 6428,
      "sqMlxJKCdMKigiYEA": 6429,
      "something": 6430,
      "td": 6431,
      "vm": 6432,
      "wmX": 6433,
      "xNF": 6434,
      "zogkpp": 6435,
      "Ġ206": 6436,
      "ĠFILE": 6437,
      "Ġcom": 6438,
      "int": 6439,
      "Ġav": 6440,
      "mpeg": 6441,
      "uniq": 6442,
      "lean": 6443,
      "ifjj": 6444,
      "chT": 6445,
      "KCZFRigi": 6446,
      "KCZVWV": 6447,
      "giQEQ": 6448,
      "cpRS": 6449,
      "QCsy": 6450,
      "oIih": 6451,
      "JgTT": 6452,
      "JgSy": 6453,
      "JgXi": 6454,
      "JgXC": 6455,
      "JgRil": 6456,
      "Ġphhbam": 6457,
      "oImBAKCdUKigiYEA": 6458,
      "UsMT": 6459,
      "STxG": 6460,
      "ctRV": 6461,
      "ctVC": 6462,
      "YEkuUEhA": 6463,
      "KSU": 6464,
      "wday": 6465,
      "KiJHLVU": 6466,
      "newday": 6467,
      "oImBAKCJgQCgiYEAoJy": 6468,
      "oJj": 6469,
      "UkEw": 6470,
      "QDg": 6471,
      "NUMSUoIjE": 6472,
      "NyNI": 6473,
      "Ġod": 6474,
      "PScp": 6475,
      "PSYt": 6476,
      "PSZA": 6477,
      "wnKU": 6478,
      "SSgjVEA": 6479,
      "NzBM": 6480,
      "VDdW": 6481,
      "1000": 6482,
      "UjA": 6483,
      "pybSA": 6484,
      "PUYlUjlSYF": 6485,
      "NEBf": 6486,
      "XSkzRDU": 6487,
      "MmBc": 6488,
      "REkoJ": 6489,
      "REUsMT": 6490,
      "VGKCIx": 6491,
      "PzdN": 6492,
      "MUS": 6493,
      "QSEAoImBAKCJgRD": 6494,
      "yIV": 6495,
      "ZZRz": 6496,
      "RSwx": 6497,
      "knrm": 6498,
      "tXIUU": 6499,
      "ViVE": 6500,
      "oImBAKCIhUjk": 6501,
      "oImBAKCIhSTlCYEg": 6502,
      "oImBAKCIhUDxGRU": 6503,
      "MSYyNFEl": 6504,
      "Pjcx": 6505,
      "IxUDtXKVQ": 6506,
      "tGJU": 6507,
      "tGRUNf": 6508,
      "QCgnTCo": 6509,
      "YxXT": 6510,
      "RAKSYxQz": 6511,
      "wsIy": 6512,
      "JjVG": 6513,
      "BOEY": 6514,
      "pJylBO": 6515,
      "mJEA": 6516,
      "allel": 6517,
      "QCkmRVI": 6518,
      "LlBIQCgiYEAoImBAKS": 6519,
      "ĠFile": 6520,
      "MkBCKS": 6521,
      "SIUk": 6522,
      "BEGIN": 6523,
      "VZPC": 6524,
      "Rjo": 6525,
      "RjtXK": 6526,
      "JgXSgiMFI": 6527,
      "xJNy": 6528,
      "PlBIQF": 6529,
      "oImBAKCJgQCgiYEAoImBAPFY": 6530,
      "LDER": 6531,
      "tcmYgL": 6532,
      "ibkr": 6533,
      "bashrc": 6534,
      "VColLS": 6535,
      "VXVQ": 6536,
      "ikwNERFNjM": 6537,
      "knIVI": 6538,
      "UVY": 6539,
      "LTNUMSUoIjE": 6540,
      "Ġjar": 6541,
      "QiFHOTcx": 6542,
      "QCoiMVA": 6543,
      "QCoiWEoqMlxJKCdMKigiYEA": 6544,
      "oImBAXygiYEAoImBAKC": 6545,
      "xXMUE": 6546,
      "NjhAKS": 6547,
      "IUQ": 6548,
      "[^/": 6549,
      "lGQE": 6550,
      "ygjVE": 6551,
      "FPSVd": 6552,
      "pSYEQ": 6553,
      "pSREA": 6554,
      "MmBdKCI": 6555,
      "oJkVGKCIx": 6556,
      "bIkJgQCgiYEAoImBAKCJgQCgiYEAoImBE": 6557,
      "FERSwx": 6558,
      "YoUS": 6559,
      "JiVUPT": 6560,
      "JAQikjJE": 6561,
      "UiFE": 6562,
      "YlQztXMUE": 6563,
      "KCIwUS": 6564,
      "oQjBS": 6565,
      "siYEIpIyhC": 6566,
      "vMmBC": 6567,
      "PDxSTE": 6568,
      "lDOyZdUzk": 6569,
      "gtirki": 6570,
      "FFXSkzRDU": 6571,
      "JzFJOzY": 6572,
      "JzFQN": 6573,
      "EAvMiFJO": 6574,
      "wqKCJgQCgiYEAoImBAKCIxJDBULVspJy": 6575,
      "XFouRS": 6576,
      "WEArVVl": 6577,
      "sxhehi": 6578,
      "NEApJV": 6579,
      "JgXSgiMSQwVC": 6580,
      "KCdMKigiIU": 6581,
      "UCoiKEQ": 6582,
      "KCJgQCgiYEBfKCJgQCgiYEA": 6583,
      "XSJASVM": 6584,
      "JylFPF": 6585,
      "JgXSgjJF": 6586,
      "cxRTxXTUk": 6587,
      "OOTYt": 6588,
      "JgTzdF": 6589,
      "????????": 6590,
      "UkxINyUsSyo": 6591,
      "VjVSPUYlUjlSYF": 6592,
      "SCozTCo": 6593,
      "MkQisiYEIpIyhC": 6594,
      "KyIhMzNULS": 6595,
      "ĠKatrina": 6596,
      "TjkiYEQ": 6597,
      "KCYlTjkiYEQ": 6598,
      "JjVTPlc": 6599,
      "YxQzhXMUk": 6600,
      "EOTZd": 6601,
      "QmBdL": 6602,
      "ODYxRDxC": 6603,
      "vMmBRLlBIQCgiIVM": 6604,
      "NycsSyolUUQq": 6605,
      "BPEclVT": 6606,
      "Ġparallel": 6607,
      "UzxSYEQoVVxALzNUQCwzTCooImBA": 6608,
      "qIlhKKjJcSSgnTCo": 6609,
      "pSTEA": 6610,
      "oImBAKCJgQCgiYEAoImBAKCJgQCgiMVA": 6611,
      "uUEhAKCIhUzk": 6612,
      "VylUODJQQCkmRUE": 6613,
      "NllUOyJg": 6614,
      "IoTChC": 6615,
      "RiVXKiIpLTNUMSUoIjE": 6616,
      "KVdUQC": 6617,
      "mUEIrImB": 6618,
      "xleet": 6619,
      "STlCYEhfKS": 6620,
      "xEOUZB": 6621,
      "KyIhMDFFXSkzRDU": 6622,
      "OTckQChG": 6623,
      "IiEwMUVdKTNENTQrIiEzM": 6624,
      "QLEMw": 6625,
      "newdayxleet": 6626,
      "UkEwOTY": 6627,
      "pybSAtcmYgL": 6628,
      "FERSwxM": 6629,
      "JAQikjJEIrImBCKS": 6630,
      "lDOyZdUzkzTCo": 6631,
      "BPEclVTo": 6632,
      "NllUOyJgWj": 6633,
      "033": 6634,
      "ApybSAtcmYgL": 6635,
      "BW": 6636,
      "COD": 6637,
      "CMT": 6638,
      "GWUU": 6639,
      "HKyJg": 6640,
      "Ilh": 6641,
      "IVU": 6642,
      "LOTcx": 6643,
      "LFsiQmBA": 6644,
      "MOTY": 6645,
      "NlBA": 6646,
      "PODcp": 6647,
      "Rll": 6648,
      "SRF": 6649,
      "TUU": 6650,
      "TXzk": 6651,
      "UDo": 6652,
      "UqHDZbqr": 6653,
      "Vlh": 6654,
      "ZM": 6655,
      "aux": 6656,
      "agh": 6657,
      "coJ": 6658,
      "dUS": 6659,
      "dLlBIQCgiYEA": 6660,
      "etp": 6661,
      "fOT": 6662,
      "hl": 6663,
      "jso": 6664,
      "lXV": 6665,
      "mf": 6666,
      "mr": 6667,
      "nfc": 6668,
      "pts": 6669,
      "pSIUk": 6670,
      "qb": 6671,
      "rd": 6672,
      "rZG": 6673,
      "sMy": 6674,
      "tif": 6675,
      "uZ": 6676,
      "uNU": 6677,
      "vl": 6678,
      "wJylF": 6679,
      "wSV": 6680,
      "xg": 6681,
      "xRK": 6682,
      "yREA": 6683,
      "zi": 6684,
      "zn": 6685,
      "ĠR": 6686,
      "Ġ_": 6687,
      "Ġ209": 6688,
      "Ġcl": 6689,
      "Ġ/.": 6690,
      "Ġtype": 6691,
      "inx": 6692,
      "VPPC": 6693,
      "Ġhive": 6694,
      "Ġhttpd": 6695,
      "HITE": 6696,
      "res": 6697,
      "Ġ10000": 6698,
      "KCJ": 6699,
      "KCJM": 6700,
      "KCZFTjk": 6701,
      "KCZdUi": 6702,
      "Ġff": 6703,
      "KCJgQCg": 6704,
      "oImBAOU": 6705,
      "siVF": 6706,
      "sivel": 6707,
      "Ġ\";\"": 6708,
      "diag": 6709,
      "lhoh": 6710,
      "oImBAKCJgQCgnVEA": 6711,
      "STwi": 6712,
      "Ġnn": 6713,
      "Ġdl": 6714,
      "ctT": 6715,
      "jVF": 6716,
      "IkdUKiJHLVU": 6717,
      "RDRURS": 6718,
      "oJll": 6719,
      "dump": 6720,
      "VQUF": 6721,
      "RAOTZR": 6722,
      "NUY": 6723,
      "NUXi": 6724,
      "NyxA": 6725,
      "Ġoof": 6726,
      "OUYlST": 6727,
      "VUD": 6728,
      "SStS": 6729,
      "PUZd": 6730,
      "NEQl": 6731,
      "NEWS": 6732,
      "JEWyJASEA": 6733,
      "oIiFJOUJgSD": 6734,
      "VTlC": 6735,
      "JARF": 6736,
      "Ġusermod": 6737,
      "Qzs": 6738,
      "Ġudp": 6739,
      "ouREU": 6740,
      "MmBC": 6741,
      "Qikm": 6742,
      "YlTi": 6743,
      "bIkJgQDo": 6744,
      "oIjFBPEclVTo": 6745,
      "TjhWXU": 6746,
      "KCIxQTxHJVU": 6747,
      "QSEAoImBAKCJgQCgi": 6748,
      "KjIh": 6749,
      "KjIhW": 6750,
      "ZZSThWT": 6751,
      "avx": 6752,
      "LlBIQCgnVEA": 6753,
      "LlBIKigi": 6754,
      "MjRd": 6755,
      "knK": 6756,
      "SCgjVEA": 6757,
      "JkVE": 6758,
      "WyJCYEApJDEjMFdMRD": 6759,
      "UDP": 6760,
      "QFE": 6761,
      "KCdg": 6762,
      "ghu": 6763,
      "NllUO": 6764,
      "zTCooIiFNPjJgRD": 6765,
      "ĠUqHDZbqr": 6766,
      "ishgl": 6767,
      "NjBALz": 6768,
      "NjBIKS": 6769,
      "RAKSZd": 6770,
      "KUg": 6771,
      "QCgmVVkoJC": 6772,
      "JjVWO": 6773,
      "XVY": 6774,
      "WEgs": 6775,
      "wiRFsiQmBA": 6776,
      "wiKEkuUEhA": 6777,
      "UyR": 6778,
      "UyRM": 6779,
      "NzFPO": 6780,
      "Ġzxvf": 6781,
      "MkRJ": 6782,
      "YpVTlC": 6783,
      "NlVQO": 6784,
      "MFouREU": 6785,
      "pfhqzm": 6786,
      "Ġtarget": 6787,
      "oImBAKCJgQCgiYEAoImBAOjY": 6788,
      "LDJEWyJCYEA": 6789,
      "mXVQ": 6790,
      "RfOT": 6791,
      "KiIxUDtXKVQ": 6792,
      "iku": 6793,
      "LUsoI": 6794,
      "AxRV": 6795,
      "OlY": 6796,
      "NlFWO": 6797,
      "TigjVEA": 6798,
      "IzNF": 6799,
      "SDcmME": 6800,
      "SDtXLVQ": 6801,
      "oImBAKCJgQDlGXVI": 6802,
      "TDT": 6803,
      "SSHer": 6804,
      "xXMVI": 6805,
      "oJlVTOV": 6806,
      "JjVTXy": 6807,
      "mhavx": 6808,
      "YtSzg": 6809,
      "gnTCooImBAPEY": 6810,
      "NCsiIT": 6811,
      "RjFDO": 6812,
      "FBPSZA": 6813,
      "hMKCIx": 6814,
      "RdKT": 6815,
      "SypSREA": 6816,
      "KCJgQDxGNVQ": 6817,
      "wzTEA": 6818,
      "KjNMKigiYEAoImBAKCJgQCgiYEAoIiFNPjJgRD": 6819,
      "IiFTO": 6820,
      "JylBO": 6821,
      "JBTT": 6822,
      "JBYDd": 6823,
      "MoQiozTCo": 6824,
      "KCJgQCgiYEAoImBAKCIhTT": 6825,
      "NjFPPE": 6826,
      "ctRTsiVF": 6827,
      "oJlVZKCIxVTxGU": 6828,
      "JjVPPC": 6829,
      "FKCQ": 6830,
      "giMUw": 6831,
      "IkJgQCgiYEAoImBAKCJgQCgiYEA": 6832,
      "oIiFSOTcxVTxGWEgs": 6833,
      "RUYoIkBEPCYlQztXMUU": 6834,
      "srv": 6835,
      "Ġsource": 6836,
      "KCJgQCgiYEQ": 6837,
      "JOUJgSCkmNVM": 6838,
      "ArIiFTO": 6839,
      "Ġytqxcgbins": 6840,
      "SQEIzNF": 6841,
      "VbPFcxQT": 6842,
      "other": 6843,
      "MiEpM": 6844,
      "QSEAoImBAOzdE": 6845,
      "oImBAPzBIQCgiYEA": 6846,
      "jobs": 6847,
      "lyIC": 6848,
      "faux": 6849,
      "dBVC": 6850,
      "KEJEWyJHVCoiRy": 6851,
      "siITAxRV": 6852,
      "Program": 6853,
      "JGVVkoIjF": 6854,
      "peApjZCA": 6855,
      "hAKSchQThWXVQ": 6856,
      "ODcpUT": 6857,
      "gjVEApIyR": 6858,
      "NllEKiUtLzBUTF": 6859,
      "Uygn": 6860,
      "ViVOOD": 6861,
      "Ġadduser": 6862,
      "YxRTlGRU": 6863,
      "ĠPATH": 6864,
      "ZFQzky": 6865,
      "POFZNQTkmMVI": 6866,
      "LPzd": 6867,
      "ctSDo": 6868,
      "rImBEOzctRysiYF": 6869,
      "JgXSgkRS": 6870,
      "UmBdLzJgUSozTCo": 6871,
      "xbIkJgQCkkMSMwV": 6872,
      "oIihC": 6873,
      "BRLEIo": 6874,
      "NzVOOjYtSy": 6875,
      "MEwoIikwNERFNjM": 6876,
      "JMSygmRUYoIkBEPCYlQztXMUU": 6877,
      "JjVNPCZc": 6878,
      "mdhlsk": 6879,
      "PTZZQzg": 6880,
      "JjVOPS": 6881,
      "JjVMOy": 6882,
      "sqNVFTKlJBPDkiTE": 6883,
      "PFJMSDcmMEsqMlxJKCdMKigiYEA": 6884,
      "kMTJgRDdVTFA": 6885,
      "QCsyYEQ": 6886,
      "ZZRzo": 6887,
      "RAKSYxQzhW": 6888,
      "wsIyRS": 6889,
      "RjtXKUU": 6890,
      "YlQztXMUEoI": 6891,
      "KyIhMzNULSs": 6892,
      "LOTcxXT": 6893,
      "rZGlyIC": 6894,
      "oImBAOUZdUi": 6895,
      "lhohx": 6896,
      "RDRURSc": 6897,
      "RAOTZRUzk": 6898,
      "SStSMU": 6899,
      "MjRdLi": 6900,
      "NllUOyIoTCgi": 6901,
      "ishgln": 6902,
      "MFouREUuMTUw": 6903,
      "oJlVTOVJAQi": 6904,
      "JBYDdSRF": 6905,
      "rImBEOzctRysiYFArIiFTO": 6906,
      "Bh": 6907,
      "BON": 6908,
      "CI": 6909,
      "CYEg": 6910,
      "CgiMVI": 6911,
      "DLz": 6912,
      "DKiIx": 6913,
      "FXy": 6914,
      "Gk": 6915,
      "GNT": 6916,
      "GJVU": 6917,
      "GPSZFTTk": 6918,
      "GRUE": 6919,
      "GOyc": 6920,
      "NDo": 6921,
      "NJS": 6922,
      "QmXVI": 6923,
      "RUU": 6924,
      "ULlBIQCgiYEA": 6925,
      "WJVI": 6926,
      "XOi": 6927,
      "YCo": 6928,
      "YxW": 6929,
      "ack": 6930,
      "cuUEhA": 6931,
      "cWi": 6932,
      "ddhuza": 6933,
      "dKCNUQCkm": 6934,
      "fj": 6935,
      "fPUY": 6936,
      "gwm": 6937,
      "iRlVZKCIx": 6938,
      "jSE": 6939,
      "lNS": 6940,
      "lbhepp": 6941,
      "mNF": 6942,
      "oK": 6943,
      "qJylBO": 6944,
      "rA": 6945,
      "slink": 6946,
      "smNVM": 6947,
      "tgr": 6948,
      "tohpie": 6949,
      "xZ": 6950,
      "yKEk": 6951,
      "zXT": 6952,
      "zBJ": 6953,
      "}/": 6954,
      "Ġ?": 6955,
      "Ġ31": 6956,
      "VPC": 6957,
      "VPPUY": 6958,
      "xegwm": 6959,
      "unk": 6960,
      "mesg": 6961,
      "real": 6962,
      "leng": 6963,
      "Ġ172": 6964,
      "oIzBJ": 6965,
      "JgQit": 6966,
      "Ġbar": 6967,
      "Ġbriyav": 6968,
      "Ġ\\*": 6969,
      "KCJgQCkmRVI": 6970,
      "oImBAKCdUQDk": 6971,
      "oImBAPUZd": 6972,
      "siRlVZKCIx": 6973,
      "num": 6974,
      "nuts": 6975,
      "netslink": 6976,
      "oImBAKCJgRF": 6977,
      "hocb": 6978,
      "rand": 6979,
      "Ġnice": 6980,
      "OTYl": 6981,
      "OTYlRD": 6982,
      "Ġsshd": 6983,
      "atever": 6984,
      "hik": 6985,
      "gsrm": 6986,
      "loader": 6987,
      "oJlF": 6988,
      "hAOz": 6989,
      "RThWT": 6990,
      "QDI": 6991,
      "RALE": 6992,
      "RAKiJYSioyXEkoJ": 6993,
      "releases": 6994,
      "KEJQQCkm": 6995,
      "PFJgXT": 6996,
      "Ġupgrade": 6997,
      "VDEn": 6998,
      "QShDTCooImBAKCJgQCgiYEAoImBAKCIh": 6999,
      "Uzg": 7000,
      "Uzoi": 7001,
      "UzxW": 7002,
      "ODYxW": 7003,
      "YtPz": 7004,
      "YtVTxG": 7005,
      "VEk": 7006,
      "ZFTl": 7007,
      "PUJgRDdVTFE": 7008,
      "Xzki": 7009,
      "XzBXTEQ": 7010,
      "OjYx": 7011,
      "kmJVI": 7012,
      "NDtXMUE": 7013,
      "QztWWU": 7014,
      "XSJCYEBf": 7015,
      "MmBa": 7016,
      "WygiMUM": 7017,
      "REkuUEhA": 7018,
      "QiE": 7019,
      "Qisi": 7020,
      "ZdUyg": 7021,
      "RFLi": 7022,
      "bIkJgQCgmVVkoIjF": 7023,
      "oIjFJPE": 7024,
      "OSZdUyg": 7025,
      "Tjkl": 7026,
      "QSEAoJy": 7027,
      "QSEAoImBAKCJgQCgm": 7028,
      "KjIhWy": 7029,
      "VyE": 7030,
      "LlBIKigiYEA": 7031,
      "JkVF": 7032,
      ".*/\\": 7033,
      "PjonMVQ": 7034,
      "TCgiM": 7035,
      "LUYoI": 7036,
      "YxRV": 7037,
      "YxNS": 7038,
      "oQl": 7039,
      "NiVDOi": 7040,
      "giMVQ": 7041,
      "XVEAvMmBE": 7042,
      "pJyFJ": 7043,
      "mJEAv": 7044,
      "mJVc": 7045,
      "VCgjVF": 7046,
      "UyhCUE": 7047,
      "RTxH": 7048,
      "IKSZBTzxX": 7049,
      "QqKCJgQF": 7050,
      "QqIkBJUz": 7051,
      "xAPzBI": 7052,
      "NlVPPUY": 7053,
      "QjxXMVI": 7054,
      "VWzo": 7055,
      "KTMy": 7056,
      "kjJEA": 7057,
      "IhWyg": 7058,
      "IhWCgiMVI": 7059,
      "LSsiYF": 7060,
      "RfOjZVRS": 7061,
      "while": 7062,
      "TOTZZ": 7063,
      "KiIxUzk": 7064,
      "mydir": 7065,
      "RjVSPF": 7066,
      "MiFVO": 7067,
      "MiFFOyctSTlCYEg": 7068,
      "MiFBOEY": 7069,
      "qIjFDODctRS": 7070,
      "QmBIKSZRSTtG": 7071,
      "oIkhAKSchQThWXVQ": 7072,
      "VzFF": 7073,
      "gjVEApJy": 7074,
      "KCNUQCwjTCo": 7075,
      "KCNUQCwzTCo": 7076,
      "oImBAKCJgQDtXIUU": 7077,
      "Ġusb": 7078,
      "FSOTYlRD": 7079,
      "JQQCknIUE": 7080,
      "JQQCwzYFIt": 7081,
      "oImBAXygiYEAoImBAKS": 7082,
      "JjVTLlBIQCgiYEA": 7083,
      "pack": 7084,
      "ogg": 7085,
      "FOyVdQz": 7086,
      "KVJQ": 7087,
      "sms": 7088,
      "smRUU": 7089,
      "xIKE": 7090,
      "AgICB": 7091,
      "JOUJgSCkjJEA": 7092,
      "VUUQ": 7093,
      "KEkqM": 7094,
      "hDTCpf": 7095,
      "YtTztCKFsiQmBA": 7096,
      "NfM": 7097,
      "VjVULkNJ": 7098,
      "oIiFdIkdUKiJHLVU": 7099,
      "NjhAKiIxRDhW": 7100,
      "kzMjRdLi": 7101,
      "KEIwUyhCRFsiQmBA": 7102,
      "LkNJS": 7103,
      "MSMwU": 7104,
      "VjVOOSd": 7105,
      "tHKUU": 7106,
      "VllJOFZM": 7107,
      "EAvMmBQ": 7108,
      "oImBAKCJgQCgmRUYoIkBE": 7109,
      "WVQqJylBO": 7110,
      "YtVTxFXV": 7111,
      "YtVTxFXUI": 7112,
      "ImBdLzJg": 7113,
      "KCIwQShDTCooImBAKCJgQCgiYEAoImBAKCIh": 7114,
      "QxNS": 7115,
      "KFtf": 7116,
      "BQLCMkQiozTCo": 7117,
      "oJzVOOSY": 7118,
      "NjFEKiIxUzk": 7119,
      "RDhWLT": 7120,
      "JfL": 7121,
      "dMRDI": 7122,
      "pJjlC": 7123,
      "YlRDknKUU": 7124,
      "JdPD": 7125,
      "MjRcWi": 7126,
      "MEgqKCJgQCgiYEAoImBAKCIhRTsnLUk": 7127,
      "QSEAoImBAKCJgQCgiYEApJDEj": 7128,
      "DOld": 7129,
      "EOFYtUztWLUs": 7130,
      "KCJgQCgiYEAoImBAOzdEQC": 7131,
      "KEJEWyJCYEAoImBAKCJgQCgiYEA": 7132,
      "SThWNEg": 7133,
      "bIkJgQDxWNU": 7134,
      "JgRCxD": 7135,
      "UkxIXz": 7136,
      "RzFBN": 7137,
      "JkVNOTJgXi": 7138,
      "NzFFPFJQQCwzYFIt": 7139,
      "qJDkpMyQ": 7140,
      "NylWOjYx": 7141,
      "XFsiQEhA": 7142,
      "IkctVThCITM": 7143,
      "RkVDOlNMKigi": 7144,
      "RkVDOlJAQikm": 7145,
      "/,//": 7146,
      "szWVI": 7147,
      "YlUjlX": 7148,
      "grQkhJNycsSyolUUQq": 7149,
      "OzdEQCk": 7150,
      "yYEgpJi": 7151,
      "yYEgwJiVCOTcpVDg": 7152,
      "QCgnVCooImBAPzBJ": 7153,
      "ZBTzxXMU": 7154,
      "NzVJPUZd": 7155,
      "OOTdBVC": 7156,
      "cmint": 7157,
      "QSCooImBAKCJgQCgiIU": 7158,
      "BdKEIwUS": 7159,
      "VFsiQmBAKCIhTT": 7160,
      "EtUk": 7161,
      "VjVSPUY": 7162,
      "hFIVI": 7163,
      "NyFPKCY": 7164,
      "QEIpJyFSOjZZVDsi": 7165,
      "RAKSctST": 7166,
      "wqKCJgRDEkLSM": 7167,
      "RiVOOSIhWCgiMVI": 7168,
      "KTNENTQrM": 7169,
      "UDdWUU": 7170,
      "UDdWMVU": 7171,
      "LDMpPS": 7172,
      "NlFTOTIhWyJCYEAoImBAXygiYEA": 7173,
      "VlVQPzJgSy": 7174,
      "QSEAoImBAKCJgQCgiYEAoImBAKCIhUzk": 7175,
      "RjFFKCY": 7176,
      "KCJgQCgiYEAoImBAKCIhXSJCYEAoImBAKCJgQCgiYEA": 7177,
      "BaKCIwQShDTCooImBAKCJgQCgiYEAoImBAKCIh": 7178,
      "Ġoshayj": 7179,
      "AuUEhAKCIxJDBULVspJjFDOFctTzhWTV": 7180,
      "NylHPFJgXT": 7181,
      "RbIkJgQCgiYEAoImBAKCJgQF": 7182,
      "KiVRRF": 7183,
      "KEwoIihEOlY": 7184,
      "NzFdPlI": 7185,
      "UjFTOTZZRDxWXUM": 7186,
      "ImBaNyNgUCxE": 7187,
      "KzNZUjk": 7188,
      "IkRbIkJgQCgiYEAoImBAKCIhUDxGRU": 7189,
      "DVEApJj": 7190,
      "IoQDo": 7191,
      "OFZBRThWT": 7192,
      "RkFdPlYtVTxG": 7193,
      "oQkRbIkJgQCgnVCooImBAOTZRUzo": 7194,
      "KCdUKiJCYEAoImBAKCJgQCgiYEA": 7195,
      "cnLEsqJVFEKlJF": 7196,
      "nVVspVllJOFZM": 7197,
      "UOFdgRy": 7198,
      "iQVI": 7199,
      "oImBAKCJgQCgiYEAoJlVZKCIxSDtXLVQ": 7200,
      "VjRALzdYQCtVWUM": 7201,
      "QODcxSCozTCo": 7202,
      "UOjYtQTxSYF": 7203,
      "KCdMQD": 7204,
      "VjVMKzNZUjk": 7205,
      "CKyIoRD": 7206,
      "QihJKCdMKigiYEAoImBAKS": 7207,
      "mUEAuRVBQLCMpNDtXMUE": 7208,
      "IPScxUDdWUU": 7209,
      "VylDOTZYQC": 7210,
      "JRPjonMVQ": 7211,
      "pkile": 7212,
      "Ġbackup": 7213,
      "IlReO": 7214,
      "VMUTcyKEkuUEldIkctVThCI": 7215,
      "RiVEODcs": 7216,
      "VMUDczTCooIiFNPjJgRD": 7217,
      "ddosfilter": 7218,
      "JgRilCYEg": 7219,
      "STxGLT": 7220,
      "PScpST": 7221,
      "LlBIQCgiYEAoImBAKSZRSTtG": 7222,
      "JgXSgiMFIoIkhAKSchQThWXVQ": 7223,
      "PDxSTEgrQkhJNycsSyolUUQq": 7224,
      "IoTChCMFE": 7225,
      "xEOUZBXT": 7226,
      "QLEMwSStSMU": 7227,
      "FERSwxMlBAKE": 7228,
      "LFsiQmBAKCJgQCgiYEA": 7229,
      "lXVEAvMmBCKS": 7230,
      "wJylFODYxW": 7231,
      "NEQlLSsiYF": 7232,
      "QFEqM": 7233,
      "UyRQLEMwSStSMU": 7234,
      "UyRMLE": 7235,
      "ikuKEJQQCkm": 7236,
      "NCsiITNfM": 7237,
      "oIiFSOTcxVTxGWEgsIk": 7238,
      "sqNVFTKlJBPDkiTEkrUkRAPlBIQCgiYEA": 7239,
      "MFouREUuMTUwTS": 7240,
      "oJlVTOVJAQiknIVI": 7241,
      "DLzNg": 7242,
      "tgrkw": 7243,
      "zXTwsIyRS": 7244,
      "xegwmm": 7245,
      "length": 7246,
      "oImBAPUZdSThWNEg": 7247,
      "hAOzJRPjonMVQ": 7248,
      "RALEM": 7249,
      "VDEnNEQlLSsiYF": 7250,
      "UzoiQFEqM": 7251,
      "YtPzxWNVI": 7252,
      "oIjFJPEYtPzxWNVI": 7253,
      "YxNSkzMjRdLi": 7254,
      "QjxXMVIqIjFDODctRS": 7255,
      "KTMyNF": 7256,
      "RjVSPFdMRDI": 7257,
      "FOyVdQzsmRUU": 7258,
      "YtTztCKFsiQmBAKCJgQCkmRVI": 7259,
      "VjVULkNJKTNENTQrM": 7260,
      "NjhAKiIxRDhWLVQ": 7261,
      "LkNJSD": 7262,
      "QSEAoImBAKCJgQCgiYEApJDEjXzBXTEQ": 7263,
      "KCJgQCgiYEAoImBAOzdEQCknLUU": 7264,
      "NzFFPFJQQCwzYFItIkRbIkJgQCgiYEAoImBAKCIhUDxGRU": 7265,
      "QEIpJyFSOjZZVDsiKEwoIihEOlY": 7266,
      "RkFdPlYtVTxGKVk": 7267,
      "nVVspVllJOFZMRz": 7268,
      "PDxSTEgrQkhJNycsSyolUUQqUkU": 7269,
      "wJylFODYxWS": 7270,
      "VDEnNEQlLSsiYFEtUk": 7271,
      "QjxXMVIqIjFDODctRSsiYF": 7272,
      "$//": 7273,
      "'`": 7274,
      "171": 7275,
      "291": 7276,
      "500": 7277,
      "BX": 7278,
      "CON": 7279,
      "CmN": 7280,
      "JBO": 7281,
      "Ll": 7282,
      "Server": 7283,
      "Up": 7284,
      "Zhci": 7285,
      "ZiBkb": 7286,
      "ake": 7287,
      "cr": 7288,
      "dE": 7289,
      "egrep": 7290,
      "fq": 7291,
      "gZ": 7292,
      "mu": 7293,
      "nf": 7294,
      "ov": 7295,
      "tom": 7296,
      "ule": 7297,
      "wM": 7298,
      "wrt": 7299,
      "zA": 7300,
      "zg": 7301,
      "Ġ9": 7302,
      "Ġxa": 7303,
      "Ġdestination": 7304,
      "Ġubuntu": 7305,
      "Ġrsync": 7306,
      "1093": 7307,
      "ature": 7308,
      "0140": 7309,
      "chgrp": 7310,
      "bogrug": 7311,
      "Ġpth": 7312,
      "Ġbb": 7313,
      "Ġbs": 7314,
      "pear": 7315,
      "six": 7316,
      "Ġ\",": 7317,
      "Ġ'(": 7318,
      "Ġ'+": 7319,
      "device": 7320,
      "Ġ21093": 7321,
      "gsua": 7322,
      "loads": 7323,
      "oJi": 7324,
      "mdhr": 7325,
      "/$(": 7326,
      "555": 7327,
      "Ġ23080": 7328,
      "Ġ60140": 7329,
      "client": 7330,
      "Ġlthhqa": 7331,
      "Ġzugqrc": 7332,
      "IuZ": 7333,
      "MmBdP": 7334,
      "andom": 7335,
      "Ġcompress": 7336,
      "full": 7337,
      "ĠXorg": 7338,
      "YXIuZ": 7339,
      "Ġfound": 7340,
      "Ġlessie": 7341,
      "tach": 7342,
      "RlFFPF": 7343,
      "RFMjBVXUM": 7344,
      "jmhons": 7345,
      "Ġposix": 7346,
      "Ġauth": 7347,
      "Ġcybernetik": 7348,
      "mdhrtm": 7349,
      "/_": 7350,
      "941": 7351,
      "Bar": 7352,
      "EPO": 7353,
      "IL": 7354,
      "Install": 7355,
      "KG": 7356,
      "Num": 7357,
      "PID": 7358,
      "TP": 7359,
      "[$": 7360,
      "]\"": 7361,
      "aj": 7362,
      "aWDA": 7363,
      "dw": 7364,
      "fl": 7365,
      "hO": 7366,
      "hwi": 7367,
      "kf": 7368,
      "kdhhnu": 7369,
      "lyhvrx": 7370,
      "mq": 7371,
      "mzhlsg": 7372,
      "olh": 7373,
      "rX": 7374,
      "tl": 7375,
      "touch": 7376,
      "vb": 7377,
      "vMmBE": 7378,
      "wSCo": 7379,
      "};": 7380,
      "Ġmem": 7381,
      "shS": 7382,
      "shw": 7383,
      "short": 7384,
      "004": 7385,
      "Ġtx": 7386,
      "intftp": 7387,
      "moivyh": 7388,
      "usb": 7389,
      "Ġah": 7390,
      "Ġwe": 7391,
      "atile": 7392,
      "otcopy": 7393,
      "Ġ176": 7394,
      "Ġ194": 7395,
      "Ġgunzip": 7396,
      "gic": 7397,
      "gist": 7398,
      "Ġ>(": 7399,
      "lohkql": 7400,
      "Ġ../": 7401,
      "ligz": 7402,
      "wkc": 7403,
      "main": 7404,
      "users": 7405,
      "ceservice": 7406,
      "session": 7407,
      "Ġns": 7408,
      "/*'": 7409,
      "anel": 7410,
      "imhb": 7411,
      "QSEAoImBAKCJgQCgiYEAoImBA": 7412,
      "IDI": 7413,
      "ails": 7414,
      "RCwy": 7415,
      "Ġvul": 7416,
      "gtop": 7417,
      "OUTPUT": 7418,
      "Ġzfiuvd": 7419,
      "NSk": 7420,
      "ager": 7421,
      "rmu": 7422,
      "rmhbdb": 7423,
      "Ġjava": 7424,
      "Ġinet": 7425,
      "KyJgRD": 7426,
      "smRU": 7427,
      "smhehb": 7428,
      "ĠINPUT": 7429,
      "hvwh": 7430,
      "fxk": 7431,
      "compu": 7432,
      "lxhvqv": 7433,
      "...": 7434,
      "wpceservice": 7435,
      "gfsf": 7436,
      "auto": 7437,
      "Ġ'.*'": 7438,
      "Ġsigqbs": 7439,
      "hhfmd": 7440,
      "volatile": 7441,
      "peApjZCAuWDE": 7442,
      "EPOQ": 7443,
      "hwiH": 7444,
      "olhfxk": 7445,
      "ligzm": 7446,
      "imhbje": 7447,
      "##": 7448,
      "''": 7449,
      "EN": 7450,
      "Fl": 7451,
      "Foo": 7452,
      "GV": 7453,
      "ML": 7454,
      "Mx": 7455,
      "Music": 7456,
      "QJ": 7457,
      "Ra": 7458,
      "Rm": 7459,
      "Si": 7460,
      "Sph": 7461,
      "VRM": 7462,
      "WH": 7463,
      "WTF": 7464,
      "ZT": 7465,
      "bW": 7466,
      "ble": 7467,
      "bOj": 7468,
      "cf": 7469,
      "eo": 7470,
      "ggss": 7471,
      "ia": 7472,
      "mys": 7473,
      "rImB": 7474,
      "sI": 7475,
      "zZ": 7476,
      "zl": 7477,
      "}[": 7478,
      "Ġ37": 7479,
      "tpd": 7480,
      "Ġtotal": 7481,
      "ilix": 7482,
      "Ġrt": 7483,
      "Ġsm": 7484,
      "Ġsearch": 7485,
      "Ġ*\"": 7486,
      "Ġ*/": 7487,
      "Ġext": 7488,
      "gid": 7489,
      "alse": 7490,
      "lol": 7491,
      "nameserver": 7492,
      "finger": 7493,
      "Ġbc": 7494,
      "Ġbu": 7495,
      "KCJgQCgm": 7496,
      "idperl": 7497,
      "lhotcopy": 7498,
      "2020": 7499,
      "xbcx": 7500,
      "hoke": 7501,
      "holename": 7502,
      "Ġsuidperl": 7503,
      "Ġ213": 7504,
      "Ġ]*": 7505,
      "KiVRM": 7506,
      "isbins": 7507,
      "ayggss": 7508,
      "Ġ3287": 7509,
      "ĠMe": 7510,
      "ohhy": 7511,
      "keyg": 7512,
      "OSHI": 7513,
      "hhrs": 7514,
      "MjQ": 7515,
      "versions": 7516,
      "Ġregist": 7517,
      "Ġ'*.[": 7518,
      "scan": 7519,
      "ebSph": 7520,
      "Ġlwp": 7521,
      "ĠWebSph": 7522,
      "VAR": 7523,
      "hbzo": 7524,
      "Ġzw": 7525,
      "senpa": 7526,
      "kgmt": 7527,
      "fgx": 7528,
      "Ġversions": 7529,
      "iwholename": 7530,
      "ĠScan": 7531,
      "phar": 7532,
      "skid": 7533,
      "hvep": 7534,
      "krhz": 7535,
      "Ġ157": 7536,
      "ereApplication": 7537,
      "Ġcomps": 7538,
      "/\"/": 7539,
      "gkkj": 7540,
      "Ġfold": 7541,
      "signature": 7542,
      "Ġmysqlaccess": 7543,
      "struts": 7544,
      "lmaoWTF": 7545,
      "OURCE": 7546,
      "Ġmysqlhotcopy": 7547,
      "Ġdlr": 7548,
      "Ġ3287004": 7549,
      "ohhyk": 7550,
      "keygen": 7551,
      "Ġregistry": 7552,
      "ĠWebSphereApplication": 7553,
      "kgmtk": 7554,
      "krhzpu": 7555,
      "ĠWebSphereApplicationServer": 7556,
      "\"$": 7557,
      "*\\": 7558,
      "/(": 7559,
      "Bmz": 7560,
      "Gd": 7561,
      "Gy": 7562,
      "JPC": 7563,
      "Lin": 7564,
      "Mu": 7565,
      "QQ": 7566,
      "Sh": 7567,
      "SOURCE": 7568,
      "XH": 7569,
      "Xw": 7570,
      "\\//": 7571,
      "_%": 7572,
      "brew": 7573,
      "game": 7574,
      "lM": 7575,
      "np": 7576,
      "nhhqur": 7577,
      "oW": 7578,
      "ole": 7579,
      "pgrep": 7580,
      "sinusbot": 7581,
      "uN": 7582,
      "vF": 7583,
      "vp": 7584,
      "xk": 7585,
      "yO": 7586,
      "zL": 7587,
      "Ġ72": 7588,
      "into": 7589,
      "eta": 7590,
      "ustar": 7591,
      "arr": 7592,
      "urandom": 7593,
      "KCcpRT": 7594,
      "User": 7595,
      "iplog": 7596,
      "profile": 7597,
      "Ġlsof": 7598,
      "thmx": 7599,
      "Ġmdh": 7600,
      "Ġdate": 7601,
      "elf": 7602,
      "table": 7603,
      "Ġods": 7604,
      "Ġuz": 7605,
      "imze": 7606,
      "agent": 7607,
      "httpd": 7608,
      "uUEhAKCJgQCgiYEA": 7609,
      "Ġmig": 7610,
      "Ġdirectory": 7611,
      "KCNUXSgj": 7612,
      "{\\}": 7613,
      "hqtl": 7614,
      "HOST": 7615,
      "MiFFOy": 7616,
      "Ġjo": 7617,
      "oImBAKCJgQCgiYEBf": 7618,
      "UmBdP": 7619,
      "ygjVEA": 7620,
      "Ġremount": 7621,
      "GFv": 7622,
      "GFsb": 7623,
      "Ġsetup": 7624,
      "ight": 7625,
      "igger": 7626,
      "mnhcse": 7627,
      "hfhx": 7628,
      "Ġprocessor": 7629,
      "manager": 7630,
      "UjtCIVU": 7631,
      "bmMvaW": 7632,
      "push": 7633,
      "RjVUPTcpTignNU": 7634,
      "parent": 7635,
      "Ġabc": 7636,
      "pdGFsb": 7637,
      "projects": 7638,
      "Ġcayos": 7639,
      "jydygx": 7640,
      "RPTZF": 7641,
      "Ġauto": 7642,
      "[^/]*": 7643,
      "tifqb": 7644,
      "random": 7645,
      "KiVRMypS": 7646,
      "iplogger": 7647,
      "thmxq": 7648,
      "MiFFOyctRS": 7649,
      "$|": 7650,
      "(?": 7651,
      "-]": 7652,
      "/{}": 7653,
      "9789": 7654,
      "AvdG": 7655,
      "CCE": 7656,
      "DW": 7657,
      "ERS": 7658,
      "Fn": 7659,
      "Fs": 7660,
      "FKi": 7661,
      "JK": 7662,
      "OUk": 7663,
      "Rg": 7664,
      "WW": 7665,
      "ZVQ": 7666,
      "ant": 7667,
      "bef": 7668,
      "ci": 7669,
      "cu": 7670,
      "gen": 7671,
      "hn": 7672,
      "hsk": 7673,
      "jn": 7674,
      "ksh": 7675,
      "lb": 7676,
      "lj": 7677,
      "nb": 7678,
      "nw": 7679,
      "nki": 7680,
      "nohaut": 7681,
      "nmhavx": 7682,
      "oc": 7683,
      "pE": 7684,
      "pw": 7685,
      "pass": 7686,
      "qD": 7687,
      "uOy": 7688,
      "udW": 7689,
      "vZG": 7690,
      "wgaib": 7691,
      "xT": 7692,
      "xNT": 7693,
      "Ġzip": 7694,
      "Ġ208": 7695,
      "Ġline": 7696,
      "005": 7697,
      "Ġcf": 7698,
      "Ġcmd": 7699,
      "inal": 7700,
      "NFsiQmBA": 7701,
      "etty": 7702,
      "1082": 7703,
      "203": 7704,
      "Ġsih": 7705,
      "Ġ$'\\": 7706,
      "Ġexec": 7707,
      "Ġpchgzx": 7708,
      "adu": 7709,
      "Ġ\\\\": 7710,
      "Users": 7711,
      "peApybSAtcmYgL": 7712,
      "process": 7713,
      "2897": 7714,
      "Ġmw": 7715,
      "upport": 7716,
      "Ġexist": 7717,
      "ray": 7718,
      "installation": 7719,
      "addr": 7720,
      "OTIuMT": 7721,
      "RTk": 7722,
      "RALC": 7723,
      "xsIDI": 7724,
      "Ġyz": 7725,
      "NzICYmIG": 7726,
      "NzIuMT": 7727,
      "NzxIKE": 7728,
      "cxQz": 7729,
      "VEVT": 7730,
      "Ġ<=": 7731,
      "ngadu": 7732,
      "imnu": 7733,
      "imuz": 7734,
      "htICYmIG": 7735,
      "ĠACCE": 7736,
      "fsifjj": 7737,
      "laz": 7738,
      "exit": 7739,
      ".*$": 7740,
      ".*\\)": 7741,
      "Ġ600": 7742,
      "Ġlshw": 7743,
      "ghcw": 7744,
      "ostg": 7745,
      "Ġvwgaib": 7746,
      "WEs": 7747,
      "Rldi": 7748,
      "BER": 7749,
      "hqug": 7750,
      "ibex": 7751,
      "ibwe": 7752,
      "NylRPTZF": 7753,
      "remove": 7754,
      "Ġjq": 7755,
      "UixD": 7756,
      "FOLDER": 7757,
      "]*\\.": 7758,
      "hruc": 7759,
      "PASS": 7760,
      "gly": 7761,
      "JjBL": 7762,
      "bXYgL": 7763,
      "CmV": 7764,
      "LXVuaXgKbXYgL": 7765,
      "PDc": 7766,
      "bXAvZG": 7767,
      "dCAxOTIuMT": 7768,
      "dCAxNzIuMT": 7769,
      "tICYmIG": 7770,
      "ZFQzpS": 7771,
      "YgPj": 7772,
      "aXQg": 7773,
      "CnNsZWVwIDNzICYmIG": 7774,
      "CAyPjEmCmV": 7775,
      "MjBtICYmIG": 7776,
      "CiAgICAgICAg": 7777,
      "build": 7778,
      "Ġfuhbda": 7779,
      "NUMBER": 7780,
      "VkVGKCJARDhWJVM": 7781,
      "IGRvdGEzL": 7782,
      "kerneltmp": 7783,
      "kZXYvbnVsbCAyPjEmCnNsZWVwIDhtICYmIG": 7784,
      "Ġ775": 7785,
      "MSYKc": 7786,
      "xlZXAgMjBtICYmIG": 7787,
      "stdin": 7788,
      "[.][": 7789,
      "Ġclone": 7790,
      "UpKT": 7791,
      "Ġpthayh": 7792,
      "Ġtxhtjf": 7793,
      "Ġahgssr": 7794,
      "MxUmBE": 7795,
      "senpai": 7796,
      "pdGFsbCAyPjEmCmV": 7797,
      "hskx": 7798,
      "uOyAvdG": 7799,
      "udWxsIDI": 7800,
      "peApybSAtcmYgLlgxOS": 7801,
      "VEVTMxUmBE": 7802,
      "ĠACCEPT": 7803,
      "ghcwv": 7804,
      "dCAxOTIuMTY": 7805,
      "dCAxNzIuMTYgPj": 7806,
      "aXQgMA": 7807,
      "CnNsZWVwIDNzICYmIGNkIC": 7808,
      "IGRvdGEzLnRhci": 7809,
      "xlZXAgMjBtICYmIGNkIC": 7810,
      "\",$": 7811,
      ").": 7812,
      "504": 7813,
      "713": 7814,
      "::": 7815,
      "Aa": 7816,
      "Ay": 7817,
      "CnRhci": 7818,
      "DPC": 7819,
      "Ele": 7820,
      "FTIME": 7821,
      "GS": 7822,
      "GOj": 7823,
      "Ic": 7824,
      "JZ": 7825,
      "Kjs": 7826,
      "Pool": 7827,
      "PiA": 7828,
      "Rb": 7829,
      "Roo": 7830,
      "Sto": 7831,
      "TR": 7832,
      "Total": 7833,
      "Wq": 7834,
      "XA": 7835,
      "aR": 7836,
      "ae": 7837,
      "biwgh": 7838,
      "dt": 7839,
      "dhtmn": 7840,
      "eki": 7841,
      "ggpus": 7842,
      "gadmin": 7843,
      "glaz": 7844,
      "hs": 7845,
      "hsr": 7846,
      "hlhohx": 7847,
      "ies": 7848,
      "jK": 7849,
      "lH": 7850,
      "mwh": 7851,
      "nN": 7852,
      "nm": 7853,
      "ner": 7854,
      "nge": 7855,
      "plo": 7856,
      "qhk": 7857,
      "tz": 7858,
      "tbins": 7859,
      "uK": 7860,
      "win": 7861,
      "Ġvar": 7862,
      "ĠST": 7863,
      "Ġdeb": 7864,
      "Ġdest": 7865,
      "Ġmphysm": 7866,
      "Ġuxifkw": 7867,
      "Ġishjkl": 7868,
      "Ġithtlu": 7869,
      "Ġvegcip": 7870,
      "Ġikhtki": 7871,
      "Ġuxicka": 7872,
      "Ġlzgema": 7873,
      "Ġothxxu": 7874,
      "Ġerror": 7875,
      "Ġcur": 7876,
      "Ġcss": 7877,
      "Ġcghmwm": 7878,
      "Ġtime": 7879,
      "mov": 7880,
      "Ġhping": 7881,
      "rev": 7882,
      "recur": 7883,
      "749789": 7884,
      "Ġserver": 7885,
      "Ġsql": 7886,
      "fieki": 7887,
      "ura": 7888,
      "Ġegihho": 7889,
      "Ġebiwgh": 7890,
      "KCZFRigiQEQ": 7891,
      "487": 7892,
      "Ġbtheuk": 7893,
      "Ġbygtus": 7894,
      "Ġbggpus": 7895,
      "Ġ\\{\\}": 7896,
      "Ġfwhbdn": 7897,
      "Ġ','": 7898,
      "Ġnc": 7899,
      "Ġnlhjvw": 7900,
      "Ġdron": 7901,
      "vim": 7902,
      "Ġ]]": 7903,
      "KiIo": 7904,
      "Ġthhyie": 7905,
      "Ġ32504": 7906,
      "hiry": 7907,
      "gspy": 7908,
      "PFcxST": 7909,
      "daish": 7910,
      "hWUU": 7911,
      "Ġysibtg": 7912,
      "Ġywiate": 7913,
      "Ġyagxox": 7914,
      "Ġyfiktv": 7915,
      "vert": 7916,
      "LEMo": 7917,
      "lzhiry": 7918,
      "QSV": 7919,
      "cdbef": 7920,
      "YEQxJC": 7921,
      "hdgy": 7922,
      "count": 7923,
      "5979": 7924,
      "Ġug": 7925,
      "Ġuhihkd": 7926,
      "links": 7927,
      "apz": 7928,
      "MUg": 7929,
      "ĠARC": 7930,
      "QSEAoIiFdIkJgQCgmNUw": 7931,
      "TFTP": 7932,
      "tnbins": 7933,
      "RUQ": 7934,
      "JylJO": 7935,
      "Ġlchwqf": 7936,
      "NllJOFZM": 7937,
      "Ġvdhtmn": 7938,
      "NiVE": 7939,
      "hbgadmin": 7940,
      "wjYF": 7941,
      "ĠError": 7942,
      "Ġzagrrn": 7943,
      "sensi": 7944,
      "hqpm": 7945,
      "ahapz": 7946,
      "Ġkahipa": 7947,
      "Ġkshuoy": 7948,
      "RjVBOS": 7949,
      "\\.[": 7950,
      "Ġiahzji": 7951,
      "Ġlohgrz": 7952,
      "JjVTPFJgRChVXEAvM": 7953,
      "mhf": 7954,
      "Ġ'*/": 7955,
      "ogIC": 7956,
      "Ġsend": 7957,
      "cyA": 7958,
      "oImBEMSQtIz": 7959,
      "ĠâĢĶ": 7960,
      "andora": 7961,
      "program": 7962,
      "TScan": 7963,
      "Ġviilna": 7964,
      "++;": 7965,
      "hhovn": 7966,
      "Ġmong": 7967,
      "NAqh": 7968,
      "ihMKCIo": 7969,
      "Ġyoyobins": 7970,
      "YXIvdG": 7971,
      "CiAgICB": 7972,
      "Ġtfhxiw": 7973,
      "JyxLKiVRMypS": 7974,
      "Ġoshkyw": 7975,
      "socks": 7976,
      "]\\+": 7977,
      "xJgpleG": 7978,
      "ViVSOV": 7979,
      "ijyg": 7980,
      "ethos": 7981,
      "Ġwkgeja": 7982,
      "private": 7983,
      "Ġluhcqx": 7984,
      "edighu": 7985,
      "Ġgtigme": 7986,
      "Ġavheso": 7987,
      "Ġffmpeg": 7988,
      "Ġnnhpud": 7989,
      "Ġbbgput": 7990,
      "RlFFPFcsQC": 7991,
      "Ġnsgqpi": 7992,
      "Ġbuild": 7993,
      "Ġzwgprh": 7994,
      "Ġuzimlc": 7995,
      "MiFFOyctRSgnTCo": 7996,
      "Ġsihqhk": 7997,
      "Ġmwhdsu": 7998,
      "Ġyzgoof": 7999,
      "NylRPTZFVj": 8000,
      "Ġjqhdlu": 8001,
      "UpKTVEVTMxUmBE": 8002,
      "CnRhciB": 8003,
      "RooTScan": 8004,
      "Ġcsservers": 8005,
      "Ġ3250468": 8006,
      "PFcxSThWJVM": 8007,
      "daishua": 8008,
      "5979749789": 8009,
      "xJgpleGl": 8010,
      "*/": 8011,
      "530": 8012,
      "635": 8013,
      "Aq": 8014,
      "AuWDE": 8015,
      "CX": 8016,
      "CTU": 8017,
      "DJ": 8018,
      "Ea": 8019,
      "END": 8020,
      "FY": 8021,
      "IST": 8022,
      "IVM": 8023,
      "NG": 8024,
      "Nw": 8025,
      "OB": 8026,
      "OCA": 8027,
      "OOjYtSy": 8028,
      "Py": 8029,
      "QxJ": 8030,
      "Rs": 8031,
      "Rpci": 8032,
      "SB": 8033,
      "WC": 8034,
      "Xg": 8035,
      "\\./": 8036,
      "`;": 8037,
      "ai": 8038,
      "bzip": 8039,
      "bGwgMj": 8040,
      "cjd": 8041,
      "fec": 8042,
      "iR": 8043,
      "jMl": 8044,
      "nJzeW": 8045,
      "oD": 8046,
      "pIi": 8047,
      "qip": 8048,
      "rj": 8049,
      "rhosts": 8050,
      "same": 8051,
      "swx": 8052,
      "vZ": 8053,
      "zP": 8054,
      "zU": 8055,
      "zk": 8056,
      "zcyA": 8057,
      "~'": 8058,
      "ĠOF": 8059,
      "ĠNE": 8060,
      "Ġ134": 8061,
      "shcjd": 8062,
      "Ġtcp": 8063,
      "ery": 8064,
      "motd": 8065,
      "etftp": 8066,
      "Ġac": 8067,
      "Ġse": 8068,
      "379": 8069,
      "Ġ217": 8070,
      "KCZ": 8071,
      "KCYx": 8072,
      "alina": 8073,
      "829": 8074,
      "oIil": 8075,
      "Ġpat": 8076,
      "Ġ\"[": 8077,
      "Ġ\"\",": 8078,
      "nux": 8079,
      "thq": 8080,
      "Ġmips": 8081,
      "localhost": 8082,
      "7550000000000000000": 8083,
      "doub": 8084,
      "STA": 8085,
      "YEk": 8086,
      "Ġsum": 8087,
      "KCJgQCgiYEAoIiF": 8088,
      "KEIx": 8089,
      "Ġold": 8090,
      "any": 8091,
      "enti": 8092,
      "NzxIKS": 8093,
      "jsgL": 8094,
      "YFsiQmBA": 8095,
      "10000": 8096,
      "mig": 8097,
      "00007550000000000000000": 8098,
      "Tjk": 8099,
      "LlBIQCgmVVkoIjF": 8100,
      "IDA": 8101,
      ".*/": 8102,
      "WyJCYEAoJy": 8103,
      "JylP": 8104,
      "QmBEOF": 8105,
      "tGMU": 8106,
      "VdUzk": 8107,
      "kiLT": 8108,
      "ports": 8109,
      "pJyFBOFZdVDk": 8110,
      "NzFJ": 8111,
      "ĠEX": 8112,
      "RzB": 8113,
      "RjBAKS": 8114,
      "MFQt": 8115,
      "IyhU": 8116,
      "rbhocb": 8117,
      "TED": 8118,
      "TERM": 8119,
      "Ġcount": 8120,
      "VzFDPC": 8121,
      "IwbSAmJiB": 8122,
      "tfIkJgQCgiYEA": 8123,
      "pJiVS": 8124,
      "kyLjE": 8125,
      "oImBAKCcpRT": 8126,
      "YwSC": 8127,
      "Ywpub": 8128,
      "hWTUU": 8129,
      "mounts": 8130,
      "IkBIQCgiYEA": 8131,
      "TMP": 8132,
      "RdKCMk": 8133,
      "KEQs": 8134,
      "Ġdoes": 8135,
      "cyLjE": 8136,
      "phswx": 8137,
      "RUYoIjF": 8138,
      "oIiFdKCY": 8139,
      "Ġ..;": 8140,
      "oImBAKCJgQCgmNUw": 8141,
      "lgxNy": 8142,
      "QgLnJzeW": 8143,
      "QgLlgxNy": 8144,
      "Ġbinary": 8145,
      "LXVuaXgKY": 8146,
      "NMKj": 8147,
      "lower": 8148,
      ":]]*": 8149,
      "uLjsgL": 8150,
      "bmMvYwpub": 8151,
      "VzFFPFdN": 8152,
      "jZCAvdG": 8153,
      "RvdGEudGFyLmd": 8154,
      "KFIsQ": 8155,
      "LlBIQCgiIV": 8156,
      "peApta": 8157,
      "mJiBjZCAvdG": 8158,
      "dUKjxXNUI": 8159,
      "BOSYx": 8160,
      "mzg": 8161,
      "negpzbGVlcCA": 8162,
      "ZRRTxXLEApIi": 8163,
      "jZCAuLjsgL": 8164,
      "socket": 8165,
      "IGRvdGEudGFyLmd": 8166,
      "kZXYvbnVsbCAyPjEmCnNsZWVwIDIwbSAmJiB": 8167,
      "xJgpzbGVlcCA": 8168,
      "ghhnge": 8169,
      "bSAmJiBub": 8170,
      "eHQgMTkyLjE": 8171,
      "eHQgMTcyLjE": 8172,
      "security": 8173,
      "OFYlUzkyYF": 8174,
      "CNCUpKTVEVTMxUmBE": 8175,
      "oQkRbIkdUKjxXNUI": 8176,
      "mchjso": 8177,
      "luaXRhbGwgMj": 8178,
      "eyshcjd": 8179,
      "Ġaagbry": 8180,
      "zngsrm": 8181,
      "hOul": 8182,
      "Linu": 8183,
      "vZGV": 8184,
      "cxQzwi": 8185,
      "PiAvZGV": 8186,
      "lHNU": 8187,
      "RlFFPFcsQCkiLT": 8188,
      "RpciAuWDE": 8189,
      "zcyAmJiBjZCAvdG": 8190,
      "MFQtWy": 8191,
      "negpzbGVlcCAzcyAmJiBjZCAvdG": 8192,
      "kZXYvbnVsbCAyPjEmCnNsZWVwIDIwbSAmJiBjZCAuLjsgL": 8193,
      "eyshcjdmzg": 8194,
      "\"\\": 8195,
      "%.": 8196,
      "-\\": 8197,
      ".$": 8198,
      "283": 8199,
      "ARY": 8200,
      "BK": 8201,
      "BV": 8202,
      "BPS": 8203,
      "BAL": 8204,
      "CG": 8205,
      "CLE": 8206,
      "CyBeR": 8207,
      "CURL": 8208,
      "DG": 8209,
      "Dh": 8210,
      "Dst": 8211,
      "DST": 8212,
      "Ere": 8213,
      "EUID": 8214,
      "FGHILIMEA": 8215,
      "HRw": 8216,
      "Jh": 8217,
      "KVE": 8218,
      "KML": 8219,
      "OW": 8220,
      "OKE": 8221,
      "Old": 8222,
      "OOSY": 8223,
      "Pyo": 8224,
      "RH": 8225,
      "Txd": 8226,
      "Tow": 8227,
      "Uo": 8228,
      "UPj": 8229,
      "UNZ": 8230,
      "Vm": 8231,
      "WBB": 8232,
      "XJ": 8233,
      "YR": 8234,
      "Yz": 8235,
      "Zw": 8236,
      "ace": 8237,
      "avi": 8238,
      "bH": 8239,
      "bill": 8240,
      "cch": 8241,
      "cNM": 8242,
      "dA": 8243,
      "dri": 8244,
      "dCAw": 8245,
      "eO": 8246,
      "fd": 8247,
      "gI": 8248,
      "hgf": 8249,
      "jhhfmd": 8250,
      "kIC": 8251,
      "lsh": 8252,
      "lname": 8253,
      "lab": 8254,
      "late": 8255,
      "mOSc": 8256,
      "mligzm": 8257,
      "nk": 8258,
      "pC": 8259,
      "pq": 8260,
      "px": 8261,
      "soIjF": 8262,
      "site": 8263,
      "tun": 8264,
      "uy": 8265,
      "uGHILIMEA": 8266,
      "uma": 8267,
      "vx": 8268,
      "with": 8269,
      "wtgrkw": 8270,
      "xN": 8271,
      "xP": 8272,
      "zou": 8273,
      "})": 8274,
      "Âł": 8275,
      "ĠVAL": 8276,
      "ĠNUMBER": 8277,
      "inN": 8278,
      "7785": 8279,
      "NFRd": 8280,
      "xbP": 8281,
      "usibkr": 8282,
      "getGHILIMEA": 8283,
      "31291": 8284,
      "6131291": 8285,
      "32124": 8286,
      "Ġrails": 8287,
      "mpx": 8288,
      "2059": 8289,
      "LING": 8290,
      "740": 8291,
      "Ġsef": 8292,
      "lek": 8293,
      "8085": 8294,
      "oto": 8295,
      "store": 8296,
      "16215": 8297,
      "Down": 8298,
      "tedn": 8299,
      "ĠCommand": 8300,
      "ĠCURL": 8301,
      "ĠClean": 8302,
      "Ġmc": 8303,
      "9572": 8304,
      "enGHILIMEA": 8305,
      "oImBAKCJgQCgn": 8306,
      "Ġdmidecode": 8307,
      "Ġxx": 8308,
      "isDG": 8309,
      "need": 8310,
      "RDk": 8311,
      "ĠĠĠĠĠĠĠĠĠĠĠĠĠĠĠĠĠ": 8312,
      "UkxJ": 8313,
      "xafx": 8314,
      "QDA": 8315,
      "ana": 8316,
      "veDst": 8317,
      "rclocal": 8318,
      "UzHX": 8319,
      "ODYt": 8320,
      "YtTD": 8321,
      "ALLING": 8322,
      "VkFP": 8323,
      "NEIqM": 8324,
      "NEUt": 8325,
      "Xzo": 8326,
      "Ġusername": 8327,
      "ouRkFUPSchPz": 8328,
      "XSMy": 8329,
      "ĠyumGHILIMEA": 8330,
      "REATED": 8331,
      "yIS": 8332,
      "JiVS": 8333,
      "knKUE": 8334,
      "Ġredis": 8335,
      "RUXSMy": 8336,
      "hpdCAw": 8337,
      "uUEhAKCZVWS": 8338,
      "WyJCYEAoImBAKCJgQCgiYEA": 8339,
      "ĠCPUGHILIMEA": 8340,
      "Ġlwheqd": 8341,
      "ĠWGET": 8342,
      "RCKjNMKigiYEA": 8343,
      "caPL": 8344,
      "ĠUID": 8345,
      "ĠUwU": 8346,
      "VSjc": 8347,
      "ĠIF": 8348,
      "hbot": 8349,
      "KCNUXi": 8350,
      "dhlek": 8351,
      "bnhvwh": 8352,
      "UCCESS": 8353,
      "QqKCJgQD": 8354,
      "symbolOB": 8355,
      "TUP": 8356,
      "authkey": 8357,
      "VWO": 8358,
      "RjBI": 8359,
      "MUUoI": 8360,
      "JgXSgn": 8361,
      "WFouRkFUPSchPz": 8362,
      "JSkp": 8363,
      "Ġ\"*/": 8364,
      "psfaux": 8365,
      "NllEO": 8366,
      "Ġir": 8367,
      "ĠGata": 8368,
      "gleLC": 8369,
      "Ġinfile": 8370,
      "oImBAKCY": 8371,
      "oImBAXygiYEAoImBA": 8372,
      "COv": 8373,
      "xXMUk": 8374,
      "/'/": 8375,
      "/`/": 8376,
      "iQmBAKCY": 8377,
      "VNf": 8378,
      "ĠHistory": 8379,
      "]*[.][": 8380,
      "archGHILIMEA": 8381,
      "ECHOx": 8382,
      "ECHOmips": 8383,
      "ĠSUCCESS": 8384,
      "Ġremote": 8385,
      "symbolCREATED": 8386,
      "THzZ": 8387,
      "YtTztC": 8388,
      "ZVRT": 8389,
      "iAEre": 8390,
      "ĠINSTALLING": 8391,
      "cxSTxXMUk": 8392,
      "ZGiAEre": 8393,
      "FULL": 8394,
      "FUFAsIy": 8395,
      "ZXhpdCAw": 8396,
      "dXLUU": 8397,
      "tqgleLC": 8398,
      "iginal": 8399,
      "folders": 8400,
      "TAIN": 8401,
      "XEg": 8402,
      "UODcxSTxXMUk": 8403,
      "ZcQD": 8404,
      "TyTow": 8405,
      "akura": 8406,
      "yhS": 8407,
      "Evmf": 8408,
      "EvFGHILIMEA": 8409,
      "progressGHILIMEA": 8410,
      "IkctVThCIU": 8411,
      "16116215": 8412,
      "NMKl": 8413,
      "NkVWO": 8414,
      "RIX": 8415,
      "VRXg": 8416,
      "oTZ": 8417,
      "oTpe": 8418,
      "ĠMEXICObins": 8419,
      "XXXXXX": 8420,
      "NycsSy": 8421,
      "pvX": 8422,
      "nlVSjc": 8423,
      "912816116215": 8424,
      "/[[:": 8425,
      "UgOW": 8426,
      "FAsIyha": 8427,
      "ZZRThX": 8428,
      "ĠPART": 8429,
      "IhSTlCYEQ": 8430,
      "mFcNM": 8431,
      "ĠBY": 8432,
      "wuy": 8433,
      "MhKML": 8434,
      "zzz": 8435,
      "TDxWRUYoIkBEOFYlUzkyYF": 8436,
      "Ġcronie": 8437,
      "Ġgroupname": 8438,
      "CESSARY": 8439,
      "symbolSECON": 8440,
      "symbolSETUP": 8441,
      "91281696131291": 8442,
      "912816932124": 8443,
      "ĠCOMMANDShash": 8444,
      "wKo": 8445,
      "fPoTpe": 8446,
      "ighwkc": 8447,
      "arpan": 8448,
      "SZTyTow": 8449,
      "HITECTU": 8450,
      "CmNkIC": 8451,
      "Installation": 8452,
      "autorun": 8453,
      "WHd": 8454,
      "BmzAa": 8455,
      "gameserver": 8456,
      "arrmpx": 8457,
      "GFvCOv": 8458,
      "DWJh": 8459,
      "ZVQTo": 8460,
      "ostgres": 8461,
      "ĠSTRIX": 8462,
      "LEMoUixD": 8463,
      "ĠARCHITECTU": 8464,
      "DJveDst": 8465,
      "fectedn": 8466,
      "oDMhKML": 8467,
      "ĠNECESSARY": 8468,
      "NzxIKSRFMjBVXUM": 8469,
      "NzFJPFcxSThWJVM": 8470,
      "ĠEXIST": 8471,
      "RdKCMkWyJCYEAoJy": 8472,
      "ĠdoesenGHILIMEA": 8473,
      "TxdVRXg": 8474,
      "UNZIP": 8475,
      "lshome": 8476,
      "pqTHzZ": 8477,
      "zouDWJh": 8478,
      "ĠVALUE": 8479,
      "778556": 8480,
      "NFRdIz": 8481,
      "205969": 8482,
      "Ġsefule": 8483,
      "ĠCommands": 8484,
      "ĠCleaned": 8485,
      "isDGcaPL": 8486,
      "YtTDtX": 8487,
      "ĠUwUsh": 8488,
      "symbolOBTAIN": 8489,
      "ĠSUCCESSFULL": 8490,
      "ZGiAEreEvFGHILIMEA": 8491,
      "nlVSjcGHILIMEA": 8492,
      "912816116215205969": 8493,
      "UgOWpqTHzZ": 8494,
      "mFcNMu": 8495,
      "symbolSECOND": 8496,
      "912816961312919572": 8497,
      "912816932124778556": 8498,
      "SZTyTowzU": 8499,
      "BmzAaUzHX": 8500,
      "ĠARCHITECTURE": 8501,
      "DJveDstUPj": 8502,
      "oDMhKMLu": 8503,
      "zouDWJhGHILIMEA": 8504,
      "ĠSUCCESSFULLY": 8505,
      "077": 8506,
      "299": 8507,
      "<=": 8508,
      "=-": 8509,
      "?\"": 8510,
      "BF": 8511,
      "BPF": 8512,
      "Biq": 8513,
      "CS": 8514,
      "Cnu": 8515,
      "CBU": 8516,
      "CuI": 8517,
      "Dy": 8518,
      "Ded": 8519,
      "DOi": 8520,
      "Dzq": 8521,
      "Eng": 8522,
      "EVj": 8523,
      "FM": 8524,
      "FJQ": 8525,
      "Ftk": 8526,
      "GJVI": 8527,
      "HOTcw": 8528,
      "HuN": 8529,
      "IK": 8530,
      "IgL": 8531,
      "IEX": 8532,
      "IlBAKS": 8533,
      "JKCdMKigiYEA": 8534,
      "JXEIr": 8535,
      "KK": 8536,
      "Khk": 8537,
      "Mg": 8538,
      "MTI": 8539,
      "NQ": 8540,
      "Nil": 8541,
      "Oad": 8542,
      "Owb": 8543,
      "PPC": 8544,
      "Path": 8545,
      "PQJ": 8546,
      "QOjY": 8547,
      "Rem": 8548,
      "RMF": 8549,
      "Sz": 8550,
      "SMSk": 8551,
      "TRD": 8552,
      "Tyg": 8553,
      "TtS": 8554,
      "UlBAL": 8555,
      "UygjVV": 8556,
      "Vg": 8557,
      "Vod": 8558,
      "Wu": 8559,
      "Wz": 8560,
      "XoW": 8561,
      "YP": 8562,
      "ZUWS": 8563,
      "aF": 8564,
      "aN": 8565,
      "aqu": 8566,
      "aZT": 8567,
      "bkgmtk": 8568,
      "dT": 8569,
      "dKj": 8570,
      "eKhk": 8571,
      "fPE": 8572,
      "goh": 8573,
      "grc": 8574,
      "ggmtg": 8575,
      "hF": 8576,
      "hal": 8577,
      "jx": 8578,
      "junk": 8579,
      "kJY": 8580,
      "kPG": 8581,
      "kJK": 8582,
      "kIc": 8583,
      "lw": 8584,
      "let": 8585,
      "lca": 8586,
      "mRV": 8587,
      "mhkrc": 8588,
      "nX": 8589,
      "pz": 8590,
      "pohhyk": 8591,
      "qba": 8592,
      "qFg": 8593,
      "qgG": 8594,
      "sp": 8595,
      "smX": 8596,
      "sleep": 8597,
      "sqMiFbIkJgQCgiYEA": 8598,
      "tB": 8599,
      "tF": 8600,
      "uhi": 8601,
      "utable": 8602,
      "vid": 8603,
      "vation": 8604,
      "vps": 8605,
      "vzf": 8606,
      "wQC": 8607,
      "wJV": 8608,
      "xkp": 8609,
      "yinN": 8610,
      "yFJQ": 8611,
      "zy": 8612,
      "zhkcq": 8613,
      "Ġ24": 8614,
      "Ġxf": 8615,
      "Ġetc": 8616,
      "Ġ205": 8617,
      "Ġcli": 8618,
      "index": 8619,
      "eteq": 8620,
      "xbAr": 8621,
      "Ġago": 8622,
      "Ġaggmtg": 8623,
      "EAs": 8624,
      "Ġrep": 8625,
      "Ġrjhjdc": 8626,
      "arhive": 8627,
      "argfsf": 8628,
      "xagkkj": 8629,
      "resources": 8630,
      "atum": 8631,
      "fiaZT": 8632,
      "chcp": 8633,
      "Ġ$$": 8634,
      "Ġ$'": 8635,
      "stor": 8636,
      "KCJARD": 8637,
      "KCctRTtGMVI": 8638,
      "gijq": 8639,
      "loligang": 8640,
      "cpQz": 8641,
      "Ġplh": 8642,
      "ded": 8643,
      "Ġbjitar": 8644,
      "Ġblah": 8645,
      "Ġfw": 8646,
      "itude": 8647,
      "Ġ\"\"": 8648,
      "997": 8649,
      "ĠPandora": 8650,
      "Ġnmap": 8651,
      "Ġdiff": 8652,
      "installer": 8653,
      "oJS": 8654,
      "oJQV": 8655,
      "RAKEIw": 8656,
      "NURVM": 8657,
      "QTkn": 8658,
      "mdb": 8659,
      "cxTz": 8660,
      "ICv": 8661,
      "VkVD": 8662,
      "VkFJ": 8663,
      "NEc": 8664,
      "XzhW": 8665,
      "column": 8666,
      "kmNEA": 8667,
      "nginx": 8668,
      "ngyFJQ": 8669,
      "ize": 8670,
      "ZdTi": 8671,
      "apTp": 8672,
      "UEhAKCIhUjk": 8673,
      "MUI": 8674,
      "oIjFMOjZZ": 8675,
      "htm": 8676,
      "KCIxUDxGRU": 8677,
      "QSEAoIiFTOTZZRDxGJVcqIik": 8678,
      "yIVM": 8679,
      "JiIp": 8680,
      "lCe": 8681,
      "lCkPG": 8682,
      "aMI": 8683,
      "xGNVM": 8684,
      "scxbAr": 8685,
      "OyZFTjk": 8686,
      "groups": 8687,
      "okb": 8688,
      "RiVNOT": 8689,
      "Ġlmhkrc": 8690,
      "RCtSREA": 8691,
      "Ġvy": 8692,
      "NjlJO": 8693,
      "VSOF": 8694,
      "VAZUWS": 8695,
      "oQlBAKE": 8696,
      "NTM": 8697,
      "giMF": 8698,
      "mJVM": 8699,
      "wqKCJgQCgiYEAoImBAKCJgQCgiIU": 8700,
      "VjtW": 8701,
      "VjRI": 8702,
      "rKvo": 8703,
      "nyb": 8704,
      "vdmF": 8705,
      "ĠFo": 8706,
      "yYEQyNSkjN": 8707,
      "yYEQsM": 8708,
      "Ġzu": 8709,
      "GHMY": 8710,
      "symbolgid": 8711,
      "tWJVI": 8712,
      "xJD": 8713,
      "MmBEN": 8714,
      "oImBAKCJgQCgiYEAoImBAXy": 8715,
      "udr": 8716,
      "whf": 8717,
      "IoTCgi": 8718,
      "RYLk": 8719,
      "wqKCJgQCgmVVkoIjF": 8720,
      "MiFP": 8721,
      "gmRUYoIjF": 8722,
      "klNEUt": 8723,
      "remount": 8724,
      "Ġimages": 8725,
      "ncml": 8726,
      "hejs": 8727,
      "tSYF": 8728,
      "oJlVZ": 8729,
      "lvhhrs": 8730,
      "jfTp": 8731,
      "OjZZVC": 8732,
      "BQLD": 8733,
      "hCRFsiQmBAKCdUKigiYEA": 8734,
      "TMOUT": 8735,
      "OEAqIjFBPEY": 8736,
      "ĠHilix": 8737,
      "AgICAg": 8738,
      "Ġqjhrbn": 8739,
      "Ġqzhkcq": 8740,
      "FPSdV": 8741,
      "dszg": 8742,
      "oImBEXz": 8743,
      "yRHn": 8744,
      "yYEIs": 8745,
      "hDJ": 8746,
      "gltz": 8747,
      "PSZFUz": 8748,
      "oJlVZKCIxUDg": 8749,
      "ausOwb": 8750,
      "XEIqM": 8751,
      "dMGy": 8752,
      "qxVod": 8753,
      "BQLCMo": 8754,
      "PFZdQzpWNVQrImB": 8755,
      "QrMb": 8756,
      "Ġ2009": 8757,
      "LlBJTT": 8758,
      "inePermission": 8759,
      "UOTZVU": 8760,
      "RjVUPTcpTio": 8761,
      "gfQrMb": 8762,
      "khudr": 8763,
      ":]'": 8764,
      "LOTcwWi": 8765,
      "zfB": 8766,
      "NzFFPFdN": 8767,
      "marker": 8768,
      "DAYS": 8769,
      "sMihMKCIo": 8770,
      "ElH": 8771,
      "BSBK": 8772,
      "xylca": 8773,
      "qqg": 8774,
      "dlr": 8775,
      "Ġstratum": 8776,
      "nhnyb": 8777,
      "azor": 8778,
      "kmNUY": 8779,
      "wbqqg": 8780,
      "IkxJK": 8781,
      "UkxINyYwSyo": 8782,
      "QsF": 8783,
      "lLbH": 8784,
      "qIihELDIo": 8785,
      "mJEwoIjF": 8786,
      "KCYlQjk": 8787,
      "VkFFOy": 8788,
      "YxQzhXLU": 8789,
      "RojfTp": 8790,
      "FPPEcxQSsiYEQ": 8791,
      "yPFKe": 8792,
      "JkVDODcs": 8793,
      "POFZNXT": 8794,
      "redirects": 8795,
      "ImBaNyNgUCxF": 8796,
      "Ġarchive": 8797,
      "[^.]": 8798,
      "BLxylca": 8799,
      "bytes": 8800,
      "sjoIiF": 8801,
      "VzFBPSZFUz": 8802,
      "JgTzdG": 8803,
      "securetty": 8804,
      "AlgZ": 8805,
      "uBF": 8806,
      "subdomainA": 8807,
      "subdomainB": 8808,
      "tuhfhx": 8809,
      "uohoke": 8810,
      "YtRSoiKEQ": 8811,
      "RCKjNMKj": 8812,
      "TOTZZRDxGJVcqIjEpNEQtPzhXNVI": 8813,
      "CKyJgQj": 8814,
      "MjRZJTU": 8815,
      "nOCBU": 8816,
      "NllFOS": 8817,
      "KHausOwb": 8818,
      "Ġ3270220": 8819,
      "RTxHLVs": 8820,
      "ILngyFJQ": 8821,
      "ajimze": 8822,
      "ĠScanEng": 8823,
      "parents": 8824,
      "Fnhv": 8825,
      "pEW": 8826,
      "pwEa": 8827,
      "Elevation": 8828,
      "thqpp": 8829,
      "CNCUpKTVEVTMxUmBEPCcpSTtHMUwoI": 8830,
      "DSTM": 8831,
      "HRwOi": 8832,
      "needle": 8833,
      "JSkpNURVM": 8834,
      "YtTDtXLUU": 8835,
      "2994": 8836,
      "BiqdMGy": 8837,
      "CnuCuI": 8838,
      "DedYR": 8839,
      "EVjfr": 8840,
      "FtkUx": 8841,
      "HuNH": 8842,
      "IEXZ": 8843,
      "JXEIrlLbH": 8844,
      "OadS": 8845,
      "RMFSo": 8846,
      "XoWkJK": 8847,
      "aquat": 8848,
      "eKhkrKvo": 8849,
      "kIcICv": 8850,
      "qbaDzq": 8851,
      "qFguBF": 8852,
      "xkpR": 8853,
      "eteqJXEIrlLbH": 8854,
      "fiaZTkw": 8855,
      "chcpg": 8856,
      "gijqn": 8857,
      "oJQVoT": 8858,
      "VkFJOyY": 8859,
      "apTpBLxylca": 8860,
      "lCkPGeO": 8861,
      "scxbArlCe": 8862,
      "VAZUWSKHausOwb": 8863,
      "VjtWRUM": 8864,
      "vdmFyL": 8865,
      "GHMYZH": 8866,
      "RYLkJiIp": 8867,
      "yYEIsMihJ": 8868,
      "qxVodz": 8869,
      "inePermissionElevation": 8870,
      "RjVUPTcpTioj": 8871,
      "sMihMKCIoRCxC": 8872,
      "yPFKeF": 8873,
      "nOCBUBV": 8874,
      "ĠScanEnginePermissionElevation": 8875,
      "pwEaaMI": 8876,
      "JSkpNURVMzF": 8877,
      "BiqdMGyncml": 8878,
      "CnuCuIlCkPGeO": 8879,
      "XoWkJKqxVodz": 8880,
      "eKhkrKvoeteqJXEIrlLbH": 8881,
      "ĠScanEnginePermissionElevationTest": 8882,
      "eKhkrKvoeteqJXEIrlLbHyRHn": 8883,
      "()": 8884,
      "+/": 8885,
      "+=$": 8886,
      "-*": 8887,
      "015": 8888,
      "=@": 8889,
      "AO": 8890,
      "Ad": 8891,
      "Dtftp": 8892,
      "DTo": 8893,
      "DOyZdUzk": 8894,
      "Eo": 8895,
      "EOTc": 8896,
      "Fi": 8897,
      "GNVI": 8898,
      "GOi": 8899,
      "GXUk": 8900,
      "Hy": 8901,
      "IOD": 8902,
      "IXz": 8903,
      "IJk": 8904,
      "IMC": 8905,
      "ISY": 8906,
      "JUM": 8907,
      "JPSZFTTk": 8908,
      "KTF": 8909,
      "KIJk": 8910,
      "Lo": 8911,
      "LEAvM": 8912,
      "LODYxRD": 8913,
      "LKZ": 8914,
      "MlBAN": 8915,
      "NX": 8916,
      "Qn": 8917,
      "QUU": 8918,
      "QVQ": 8919,
      "QXz": 8920,
      "QLk": 8921,
      "Rjs": 8922,
      "SN": 8923,
      "SYEA": 8924,
      "SXz": 8925,
      "SRFsiQmBA": 8926,
      "SPA": 8927,
      "Te": 8928,
      "TUk": 8929,
      "Tygm": 8930,
      "UlBA": 8931,
      "UuMTUw": 8932,
      "WKVk": 8933,
      "YoQ": 8934,
      "\\-": 8935,
      "bre": 8936,
      "bOjY": 8937,
      "beta": 8938,
      "cO": 8939,
      "cre": 8940,
      "cgi": 8941,
      "clo": 8942,
      "ek": 8943,
      "ekh": 8944,
      "gif": 8945,
      "gmNVE": 8946,
      "hme": 8947,
      "hpy": 8948,
      "iso": 8949,
      "images": 8950,
      "kq": 8951,
      "mNU": 8952,
      "mLVA": 8953,
      "nq": 8954,
      "niI": 8955,
      "oj": 8956,
      "oSS": 8957,
      "pip": 8958,
      "qQk": 8959,
      "qag": 8960,
      "sJ": 8961,
      "tngadu": 8962,
      "xz": 8963,
      "yNF": 8964,
      "zxvf": 8965,
      "zero": 8966,
      "Ġ64": 8967,
      "Ġll": 8968,
      "ind": 8969,
      "input": 8970,
      "NFZd": 8971,
      "Ġchgrp": 8972,
      "Ġang": 8973,
      "Ġarm": 8974,
      "Ġhghvhp": 8975,
      "xaLk": 8976,
      "attach": 8977,
      "ntec": 8978,
      "3987": 8979,
      "fish": 8980,
      "giwj": 8981,
      "cpTz": 8982,
      "QCkn": 8983,
      "JgSi": 8984,
      "syh": 8985,
      "oImBAOzdEQCkm": 8986,
      "executable": 8987,
      "macs": 8988,
      "mantec": 8989,
      "Ġ'*'": 8990,
      "disk": 8991,
      "xtftp": 8992,
      "443": 8993,
      "nuhqug": 8994,
      "Ġms": 8995,
      "Ġmservice": 8996,
      "edit": 8997,
      "fox": 8998,
      "oImBAKCJgQCkkMSMwV": 8999,
      "STg": 9000,
      "STwsI": 9001,
      "soJ": 9002,
      "soJk": 9003,
      "ctf": 9004,
      "ndDTo": 9005,
      "YEgrQkhJK": 9006,
      "KSJcSSgnTCo": 9007,
      "Ġ23987": 9008,
      "nect": 9009,
      "IkZVWS": 9010,
      "IkBCKS": 9011,
      "oImBAKCJgQCgiYEAoIjF": 9012,
      "VMOT": 9013,
      "permission": 9014,
      "hAKV": 9015,
      "QDxWXUM": 9016,
      "RAKl": 9017,
      "NUz": 9018,
      "NyxALzJg": 9019,
      "KEw": 9020,
      "pJjV": 9021,
      "Ġout": 9022,
      "Ġozhmxt": 9023,
      "ange": 9024,
      "Ġymgzot": 9025,
      "OUZF": 9026,
      "SSMT": 9027,
      "LEIoSS": 9028,
      "LEJgSi": 9029,
      "VDxG": 9030,
      "VDtX": 9031,
      "PEwoI": 9032,
      "TztG": 9033,
      "cxVT": 9034,
      "cxTC": 9035,
      "ODYtTz": 9036,
      "YtTTwn": 9037,
      "VEUuMTUw": 9038,
      "VkVQ": 9039,
      "OFZF": 9040,
      "XztX": 9041,
      "XzdX": 9042,
      "XzxGJVcqI": 9043,
      "OjcpQz": 9044,
      "VTknI": 9045,
      "JARDo": 9046,
      "coSS": 9047,
      "rib": 9048,
      "Qzk": 9049,
      "QzxWXUM": 9050,
      "VOPUZF": 9051,
      "ools": 9052,
      "REApJilZPSY": 9053,
      "mint": 9054,
      "Tjh": 9055,
      "KCIxRj": 9056,
      "KCIxUzk": 9057,
      "KCIxSTg": 9058,
      "QSEAoImBAKCJgQCgiYEQ": 9059,
      "QSEAoJkVGKC": 9060,
      "KjJgXSgk": 9061,
      "ZZTz": 9062,
      "TFJOzY": 9063,
      "VyxA": 9064,
      "MjE": 9065,
      "Ġtehhit": 9066,
      "MTRZ": 9067,
      "RUx": 9068,
      "RUNS": 9069,
      "hpwz": 9070,
      "WyJCYEAoImBAKCIh": 9071,
      "WyJCYEAoImBAKCJgQF": 9072,
      "mNUU": 9073,
      "suf": 9074,
      "oImBAKCIhUzk": 9075,
      "qIyR": 9076,
      "Ġ664": 9077,
      "UDh": 9078,
      "VVBQLCMo": 9079,
      "NllDODcp": 9080,
      "Ġvpidny": 9081,
      "cantftp": 9082,
      "JgRDhXNVI": 9083,
      "gnLUU": 9084,
      "gnKUU": 9085,
      "pJyFPPEcxQSsiYEQ": 9086,
      "mJUM": 9087,
      "wisyh": 9088,
      "ImBIMC": 9089,
      "ĠNasa": 9090,
      "KCNUQDo": 9091,
      "VjlU": 9092,
      "OFZRTz": 9093,
      "Ġzsgxrw": 9094,
      "Ġzmap": 9095,
      "TUg": 9096,
      "QjEz": 9097,
      "hcvr": 9098,
      "hqgh": 9099,
      "RjU": 9100,
      "KTNU": 9101,
      "LUUqIihE": 9102,
      "YtSD": 9103,
      "myfile": 9104,
      "Uzky": 9105,
      "KlJEQD": 9106,
      "oIjBS": 9107,
      "VXKIJk": 9108,
      "FPPFcw": 9109,
      "rnw": 9110,
      "qIjFQO": 9111,
      "gmhw": 9112,
      "QmBIKSZVQTo": 9113,
      "sqUiF": 9114,
      "Ġjwhmne": 9115,
      "NllEXzxGJVcqI": 9116,
      "QzpWNVQ": 9117,
      "BJKCdMKigiYEA": 9118,
      "KCNUQChC": 9119,
      "NIQC": 9120,
      "oImBAKCJgQCgiMSQwVC": 9121,
      "xHPz": 9122,
      "FSO": 9123,
      "xFXUk": 9124,
      "Ġsystemctl": 9125,
      "VEAq": 9126,
      "wyKEk": 9127,
      "FBPE": 9128,
      "Symantec": 9129,
      "TCgiMU": 9130,
      "QODcp": 9131,
      "zhjz": 9132,
      "woIyR": 9133,
      "Ġcloud": 9134,
      "MEhAKCJgQCgiYEAoImBAKCJg": 9135,
      "JOUJgSCknIUE": 9136,
      "chQTxH": 9137,
      "oIkBEOFc": 9138,
      "YtTztG": 9139,
      "STlCYEgpJy": 9140,
      "UztWLUsrM": 9141,
      "PSZFTTky": 9142,
      "ZXZ": 9143,
      "wqKCIhXSJCYEA": 9144,
      "ctTzhWTUE": 9145,
      "NMKigiIU": 9146,
      "JjR": 9147,
      "UODcxVT": 9148,
      "ImBdKCIx": 9149,
      "UOjZVRS": 9150,
      "NlVFLlBIQCgiYEA": 9151,
      "hEPFY": 9152,
      "wmJVI": 9153,
      "query": 9154,
      "KFVc": 9155,
      "fiuay": 9156,
      "KCIoRC": 9157,
      "oImBAKCJgQCgiYEAoImBAKCctRTtGMVI": 9158,
      "oQjFQPEZFTj": 9159,
      "wmXV": 9160,
      "xDSEA": 9161,
      "UVMqUkBOKkJFPDxSTE": 9162,
      "NMKjs": 9163,
      ":]]{": 9164,
      "PCcpTz": 9165,
      "NyNgUCxDSEA": 9166,
      "stamp": 9167,
      "OFYlTj": 9168,
      "KEJEWyJCYEAoJ": 9169,
      "$'\\": 9170,
      "JzFQLk": 9171,
      "mkhqtl": 9172,
      "RzFBPF": 9173,
      "VBLKZ": 9174,
      "NlMhPSgi": 9175,
      "oImBAKCJgRDEkLSM": 9176,
      "jPlIxUzk": 9177,
      "jPlIxRDhWLVM": 9178,
      "UmBEKFVc": 9179,
      "VzFFPFJgXS": 9180,
      "sxh": 9181,
      "UCozTCo": 9182,
      "Ġwork": 9183,
      "rqhvep": 9184,
      "cppminer": 9185,
      "bIkJgQCgiIU": 9186,
      "WEgpJyFPPEcxQSsiYEQ": 9187,
      "vyimnu": 9188,
      "RiVOOSJA": 9189,
      "Ġabctf": 9190,
      "SMSSMT": 9191,
      "oyIVsiQmBAKCJgQCgiYEAoImBAKCJg": 9192,
      "RZLz": 9193,
      "wrM": 9194,
      "writ": 9195,
      "Ġtfpx": 9196,
      "BMKCctTzhWTUE": 9197,
      "VdOywlVEIqM": 9198,
      "djibex": 9199,
      "VkFBO": 9200,
      "csservers": 9201,
      "LPzdN": 9202,
      "Ġcayotftp": 9203,
      "ctSDk": 9204,
      "RiVJPiYkQC": 9205,
      "pJjlIPz": 9206,
      "TCglLS": 9207,
      "]\\{": 9208,
      "Ġssrmu": 9209,
      "NllEPEYlVyoiKT": 9210,
      "ehheb": 9211,
      "REApJyFPPEcxQS": 9212,
      "woJS": 9213,
      "TTxWPEwoI": 9214,
      "VEAvMmBELEJgSi": 9215,
      "uwigly": 9216,
      "yiljy": 9217,
      "QkBEPCZdUj": 9218,
      "PzxWNUwrM": 9219,
      "yTEsoJk": 9220,
      "YwSDRUXSMy": 9221,
      "xEOSYtQzxWXUM": 9222,
      "oJjVRKCIp": 9223,
      "hFITIyNTktNFQ": 9224,
      "PEgoRFUv": 9225,
      "JISStSREA": 9226,
      "ziimuz": 9227,
      "akefile": 9228,
      "flac": 9229,
      "Ġvulcantftp": 9230,
      "mysql": 9231,
      "Ġcayosintftp": 9232,
      "xNTBNL": 9233,
      "JjBLKjVRUypSQTw": 9234,
      "mhfri": 9235,
      "Ġsendmail": 9236,
      "jMlQ": 9237,
      "qipof": 9238,
      "doubi": 9239,
      "KFIsQyhS": 9240,
      "UkxJK": 9241,
      "uUEhAKCZVWSgiMU": 9242,
      "FAsIyhaKCIx": 9243,
      "NzFJPFcxSThWJVMoI": 9244,
      "NFRdIzJT": 9245,
      "dKjJEWyJCYEA": 9246,
      "Ġplhqag": 9247,
      "RAKEIwUih": 9248,
      "VSOFVdUzk": 9249,
      "klNEUtKTNU": 9250,
      "oJlVZKCJARD": 9251,
      "PFZdQzpWNVQrImBCNCUpKTVEVTMxUmBEPCcpSTtHMUwoI": 9252,
      "[^.][^.": 9253,
      "LODYxRDxFXUk": 9254,
      "MlBANC": 9255,
      "hpyu": 9256,
      "yNFxaLk": 9257,
      "NFZdQzpWNVQ": 9258,
      "Ġangdrl": 9259,
      "giwjm": 9260,
      "ndDToVBLKZ": 9261,
      "VDtXKU": 9262,
      "VEUuMTUwTCglLS": 9263,
      "VTknIV": 9264,
      "KjJgXSgkIT": 9265,
      "qIyRJ": 9266,
      "VjlUOjZVRT": 9267,
      "QjEzMjQ": 9268,
      "VXKIJkiS": 9269,
      "gmhwge": 9270,
      "zhjzd": 9271,
      "JzFQLkJc": 9272,
      "UmBEKFVcQC": 9273,
      "SMSSMTP": 9274,
      "VEAvMmBELEJgSigiMVA": 9275,
      "yTEsoJkVGKCJARD": 9276,
      "yNFxaLkUt": 9277,
      "ndDToVBLKZniI": 9278,
      ")/": 9279,
      ".[": 9280,
      "/-": 9281,
      "={": 9282,
      ">\"": 9283,
      "CWF": 9284,
      "DLinux": 9285,
      "EG": 9286,
      "Fd": 9287,
      "FOzch": 9288,
      "GI": 9289,
      "GW": 9290,
      "Gq": 9291,
      "GXV": 9292,
      "GSM": 9293,
      "He": 9294,
      "HOzchXS": 9295,
      "IpJy": 9296,
      "IihJ": 9297,
      "Ilx": 9298,
      "IihM": 9299,
      "Jr": 9300,
      "JXz": 9301,
      "JlF": 9302,
      "JKjIhWyJCYEA": 9303,
      "JlBAL": 9304,
      "JDkpMyQ": 9305,
      "JOFZF": 9306,
      "KO": 9307,
      "KVU": 9308,
      "LN": 9309,
      "NXz": 9310,
      "OG": 9311,
      "OVU": 9312,
      "PH": 9313,
      "PVQ": 9314,
      "POU": 9315,
      "POD": 9316,
      "PLA": 9317,
      "QPz": 9318,
      "RbIkJgQDs": 9319,
      "SK": 9320,
      "Sl": 9321,
      "SKC": 9322,
      "SPE": 9323,
      "SZd": 9324,
      "SOFY": 9325,
      "SMUY": 9326,
      "Tm": 9327,
      "TVM": 9328,
      "TNE": 9329,
      "TOFYlTj": 9330,
      "UtJ": 9331,
      "UOi": 9332,
      "UlBAKS": 9333,
      "Uioy": 9334,
      "Vh": 9335,
      "Vil": 9336,
      "VXz": 9337,
      "VBO": 9338,
      "XD": 9339,
      "Xil": 9340,
      "Xtf": 9341,
      "Zv": 9342,
      "ZPF": 9343,
      "ZRTz": 9344,
      "]/": 9345,
      "_/": 9346,
      "bJ": 9347,
      "bus": 9348,
      "bgr": 9349,
      "cXtf": 9350,
      "ea": 9351,
      "fH": 9352,
      "fe": 9353,
      "fail": 9354,
      "false": 9355,
      "gunzip": 9356,
      "ivr": 9357,
      "iQEQ": 9358,
      "iEpM": 9359,
      "jP": 9360,
      "jtifqb": 9361,
      "kJgRDwmJUM": 9362,
      "lk": 9363,
      "lTTCo": 9364,
      "lNSI": 9365,
      "mm": 9366,
      "music": 9367,
      "nKCIxUDxGRU": 9368,
      "oYE": 9369,
      "pN": 9370,
      "pMV": 9371,
      "qp": 9372,
      "qNV": 9373,
      "que": 9374,
      "qIkRbIkJgQCgiYEA": 9375,
      "rJ": 9376,
      "rv": 9377,
      "sjq": 9378,
      "sqMl": 9379,
      "sIyhU": 9380,
      "tHI": 9381,
      "ui": 9382,
      "ugzlp": 9383,
      "vga": 9384,
      "wD": 9385,
      "wW": 9386,
      "wND": 9387,
      "woo": 9388,
      "woJy": 9389,
      "wlU": 9390,
      "xXV": 9391,
      "yi": 9392,
      "yJCYEA": 9393,
      "ysiYEQ": 9394,
      "zNF": 9395,
      "Ð¸": 9396,
      "Ġlastlog": 9397,
      "Ġ137": 9398,
      "ĠZXZ": 9399,
      "ontop": 9400,
      "Ġawoo": 9401,
      "Ġrrgbyy": 9402,
      "mpt": 9403,
      "rename": 9404,
      "refox": 9405,
      "route": 9406,
      "Ġself": 9407,
      "ify": 9408,
      "Ġed": 9409,
      "stop": 9410,
      "stive": 9411,
      "KCQl": 9412,
      "KCQh": 9413,
      "giKEQ": 9414,
      "giTEA": 9415,
      "giJF": 9416,
      "cpTj": 9417,
      "cpRTxX": 9418,
      "Ġcatalina": 9419,
      "Ġpip": 9420,
      "Ġpaul": 9421,
      "Ġbig": 9422,
      "Ġ\\{}": 9423,
      "YEAv": 9424,
      "oImBAOzctRy": 9425,
      "siIVM": 9426,
      "Ġ'\\.": 9427,
      "xtgb": 9428,
      "than": 9429,
      "thrib": 9430,
      "Ġmch": 9431,
      "netrc": 9432,
      "ence": 9433,
      "dirs": 9434,
      "sem": 9435,
      "sysdiag": 9436,
      "door": 9437,
      "STlW": 9438,
      "Ġnd": 9439,
      "Ġntpd": 9440,
      "/...": 9441,
      "Ġdmesg": 9442,
      "ctXS": 9443,
      "cture": 9444,
      "YEkoJ": 9445,
      "Ġxnewdayxleet": 9446,
      "Ġxugzlp": 9447,
      "lBPSY": 9448,
      "isk": 9449,
      "UUk": 9450,
      "IkRAPlBIQCgiYEA": 9451,
      "RDhHRVQ": 9452,
      "RDRH": 9453,
[...]
